#version: 0.2
e n</w>
e r
i n
t h
c h
e r</w>
a n
e n
u n
i e</w>
c h</w>
e i
a l
s t
th e</w>
e s</w>
a r
e s
a s</w>
t i
e l
a t</w>
o r
l i
i n</w>
o n
e in
a u
i s
o n</w>
in g</w>
t o</w>
i s</w>
o u
w i
an d</w>
r e
o f</w>
t e</w>
a n</w>
un d</w>
d ie</w>
d er</w>
r o
a s
d i
i t</w>
a b
e d</w>
i ch</w>
o m
a t
th at</w>
s ch
b e
g e
d en</w>
o l
v er
n d</w>
t en</w>
o u</w>
l e</w>
r i
w h
r a
d e
is t</w>
er e</w>
u r
v e</w>
e h
m a
y ou</w>
o r</w>
u s
ch t</w>
l e
g en</w>
l y</w>
z u</w>
n o
d as</w>
' s</w>
ei n</w>
s i
w as</w>
h a
n i
a m
w e</w>
s o</w>
ein e</w>
a c
g e</w>
i l
d e</w>
wi r</w>
a r</w>
i t
T h
s e</w>
l o
t er
A nd</w>
h r
e t
th e
a l</w>
ch en</w>
d er
th is</w>
ti on</w>
S ie</w>
s a
di es
en t
k e</w>
s ie</w>
v on</w>
s p
v i
as s</w>
u t</w>
un g</w>
o p
n e
en t</w>
u m</w>
n en</w>
f ü
` `</w>
s t</w>
d ass</w>
in d</w>
ou t</w>
- -</w>
t h</w>
' '</w>
ar e</w>
ni cht</w>
li ch</w>
e c
U nd</w>
b er</w>
g en
e m
f f
h ab
al l</w>
l d</w>
t er</w>
b e</w>
i g
m e</w>
e m</w>
w or
al ly</w>
i c
t e
i r
m it</w>
f or</w>
s e
au f</w>
el l
ha ve</w>
g o
p ro
s en</w>
en n</w>
ch e</w>
c om
the y</w>
an n</w>
ou r</w>
g i
i r</w>
ei t</w>
d o</w>
a y</w>
i m
on e</w>
t u
I ch</w>
b en</w>
u l
h t</w>
ti on
h o
al s</w>
S o</w>
w ie</w>
c e</w>
m an</w>
wi th</w>
w ei
f or
fü r</w>
s ich</w>
w er
t r
r e</w>
e x
t o
h i
m en</w>
m o
p er
s ind</w>
t a
c k
t s</w>
p e
s u
wh at</w>
p o
n '
n' t</w>
an d
c an</w>
hab en</w>
s eh
ein en</w>
ou ld</w>
d o
ab out</w>
w e
ö n
i e
in g
e u
b er
wi r
de m</w>
w ar</w>
p l
al l
h e</w>
no w</w>
n a
th er</w>
d en
a hr
u t
s om
ol l
c on
ä n
no t</w>
es e</w>
i er
b o
u r</w>
k ön
D as</w>
a g
S ch
u m
d a
h at</w>
ver y</w>
' re</w>
d es</w>
q u
th ere</w>
th ing</w>
I n
au s</w>
E s</w>
f t</w>
op le</w>
l l</w>
a tion</w>
ein er</w>
us t</w>
I t</w>
g es
m y</w>
en sch
p p
li ke</w>
dies e</w>
el l</w>
ro m</w>
d s</w>
r u
r es
i m</w>
pe ople</w>
g ht</w>
c i
o g
W ir</w>
an t</w>
f rom</w>
st en</w>
au s
v er</w>
r ei
ü ber</w>
u s</w>
e l</w>
s el
e ar
au se</w>
al so</w>
w enn</w>
e st
V er
ein em</w>
un s</w>
w ar
m e
c o
g l
k ing</w>
m or
d u
z u
b ut</w>
P ro
ü r
g an
un s
ch te</w>
b t</w>
k om
A r
b r
j ust</w>
A l
a p
z i
kön nen</w>
ur e</w>
el t</w>
wer den</w>
t ra
i h
A n
t t
in e</w>
W e</w>
th ese</w>
o der</w>
Th e</w>
h al
B ut</w>
th in
i f</w>
g t</w>
un gen</w>
ho w</w>
s o
a m</w>
et z
au ch</w>
en d</w>
u p</w>
k en</w>
b y</w>
be c
l a
go ing</w>
au f
k now</w>
t ed</w>
the m</w>
ab er</w>
f a
h er
es s</w>
b es
f in
p ar
d ar
a d
e y</w>
S t
t z
0 0</w>
k ann</w>
lo o
A ber</w>
mor e</w>
g r
w ay</w>
a h
w o</w>
D ie</w>
G e
ha d</w>
j e
L e
wh en</w>
bec ause</w>
o w</w>
st ell
M ensch
in ter
ing s</w>
l an
w is
G es
E r
n e</w>
g ro
seh r</w>
wir d</w>
k l
am e</w>
n ur</w>
thin k</w>
se e</w>
er n</w>
e v
a ch
s h
ge t</w>
st e</w>
c k</w>
ou r
b ei
it y</w>
w ere</w>
o d</w>
k t</w>
J ahr
a te</w>
wh ich</w>
b en
A u
h ere</w>
w ould</w>
er en</w>
b i
im m
E n
th ei
m an
ä h
hi er</w>
som e
w n</w>
o ther</w>
y our</w>
i d</w>
er s</w>
sch a
gi bt</w>
seh en</w>
re ally</w>
Mensch en</w>
wh o</w>
er t</w>
thei r</w>
ö r
m ich</w>
wi ll</w>
o h
D i
f e
d ur
w ur
' ve</w>
e a
h en</w>
p a
li e
d ann</w>
as t</w>
s ein</w>
st ar
i hr
y s</w>
ti me</w>
s y
il li
Y ou</w>
li ch
f e</w>
d es
c re
v or</w>
h at
b le
I n</w>
wh ere</w>
' m</w>
eh en</w>
B e
i c</w>
eu te</w>
e t</w>
ou g
g er
th en</w>
Th is</w>
ol og
com p
no ch</w>
or t</w>
et was</w>
k s</w>
g u
h as</w>
tu ally</w>
der n</w>
I h
i el
b u
ma l</w>
z ei
an der
m ö
ä ch
y ear
wor ld</w>
hab e</w>
ab le</w>
som e</w>
eh r</w>
s en
er i
l en</w>
un g
in to</w>
t y</w>
m us
ac tually</w>
z en</w>
tion s</w>
R e
dies er</w>
v or
m ir</w>
g ra
g o</w>
na ch</w>
c ould</w>
p h
d ay</w>
un der
t ri
ac k</w>
ü ber
te t</w>
en ce</w>
m u
ti ve</w>
th ings</w>
z e</w>
U n
oug h</w>
r an
ch n
year s</w>
f o
d is
es t</w>
ch ten</w>
N ow</w>
t en
W enn</w>
m ehr</w>
be i</w>
di d</w>
f ac
h in
u n</w>
li chen</w>
un d
w a
o se</w>
h er</w>
w ant</w>
ent s</w>
wir k
ch ti
S p
s ol
el y</w>
al i
w en
l u
etz t</w>
v es</w>
Th ey</w>
d y</w>
ch an
al le</w>
w ä
f ri
vi el
W elt</w>
st or
li che</w>
e p
k eit</w>
k on
ti c
a ge</w>
g te</w>
be en</w>
w ür
ha pp
g el
ch t
di ff
l ei
n te</w>
es s
f en</w>
f t
f ir
ü s
au en</w>
ma ke</w>
d r
y ing</w>
ma chen</w>
f f</w>
o b
E in
sa id</w>
t al
on s</w>
i de
g er</w>
wur de</w>
kom men</w>
f u
imm er</w>
as s
Ih nen</w>
ri ght</w>
st u
r on
g a
f i
t ur
b ra
m er
p r
some thing</w>
com e</w>
v ing</w>
h ei
or t
i st
in n
ier en</w>
m ent</w>
ein es</w>
ü ck
mo st</w>
th an</w>
dur ch</w>
G r
z um</w>
m en
t ro
Ges ch
ein fa
at ed</w>
wirk lich</w>
s on
m eine</w>
h e
at er</w>
ü n
g re
be g
tt le</w>
wor k</w>
w er</w>
p re
t re
h eit</w>
mu ch</w>
an k</w>
d a</w>
ä u
n o</w>
diff er
a k
ier t</w>
ou s</w>
eh t</w>
as si
go t</w>
wei l</w>
o m</w>
t ing</w>
an s</w>
th ose</w>
Al so</w>
0 00</w>
li ttle</w>
d ing</w>
b ack</w>
en s</w>
D in
fir st</w>
k ed</w>
a d</w>
tu n</w>
m s</w>
ß en</w>
gl au
t wo</w>
ol d</w>
w oll
m it
u e</w>
i es</w>
ges ch
i li
m ar
is chen</w>
un ter
al e</w>
m on
ä l
is che</w>
be t
vi el</w>
i on</w>
n eh
loo k</w>
Th at</w>
m p
ch er</w>
ung s
sa y</w>
sy st
f ra
ff en</w>
hat te</w>
ri e
o ver</w>
im p
re c
dies es</w>
ne w</w>
m in
s on</w>
W as</w>
E r</w>
d am
ec t</w>
b le</w>
as sen</w>
ac e</w>
m üs
ble m</w>
n t</w>
uns ere</w>
k en
f ol
at en</w>
sa gen</w>
m t</w>
ti m
ti v
on ly</w>
L eute</w>
k eine</w>
k ind</w>
li fe</w>
p u
el n</w>
ge b
ihr e</w>
Z eit</w>
W hat</w>
il d</w>
bo dy</w>
f un
h is</w>
as e</w>
ma cht</w>
f an
ä t</w>
ar bei
fu l</w>
tion en</w>
ver y
w el
dies em</w>
du c
ei l</w>
F ra
K in
f l
ein g</w>
wi e
man y</w>
k an
viel e</w>
c a</w>
ne ed</w>
i er</w>
ie l</w>
lo t</w>
müs sen</w>
di es</w>
ar o
ä r
st and</w>
d re
b el
Din ge</w>
i ge</w>
h el
e k
re e</w>
o o
c ar
sa gte</w>
b l
war en</w>
s he</w>
ev en</w>
ta ke</w>
z us
g h
an y</w>
chn olog
Le ben</w>
n at
dies en</w>
th r
h ar
il l</w>
we i</w>
en ti
einfa ch</w>
K on
o b</w>
wis sen</w>
T e
stell en</w>
Jahr en</w>
s oll
M e
n ten</w>
Th ere</w>
gl ei
1 9
r el
M a
ge hen</w>
t ure</w>
st o
ec on
fü hr
do es</w>
b in</w>
co un
st r
Ar t</w>
us e</w>
aro und</w>
it s</w>
p res
j etzt</w>
in gen</w>
d ed</w>
and ere</w>
' ll</w>
O r
s ame</w>
h u
do wn</w>
w s</w>
ge w
go od</w>
differ ent</w>
z wei</w>
ge ht</w>
sch en</w>
m at
ig ht</w>
e very
V or
i k
ell en</w>
ih r</w>
ander en</w>
Z u
sch ie
uns er
ge ben</w>
s c
h ör
ei cht</w>
b st</w>
scha ft</w>
f er
eh r
v ed</w>
de t</w>
ell eicht</w>
in s</w>
for ma
In ter
st er</w>
st a
thr ough</w>
s ur
el le</w>
wi ck
th ou
all es</w>
am p
A us
fin den</w>
wür de</w>
M o
on g</w>
b li
2 0
per c
neh men</w>
Gesch i
Un ter
dam it</w>
ß e</w>
l in
z ur</w>
si on</w>
s k
hal ten</w>
st ehen</w>
le tz
p ut</w>
er z
o k</w>
a f
W ell</w>
D er</w>
t el
z ur
b as
m m
c all
ü ck</w>
v ol
W ie</w>
on en</w>
l t</w>
ti es</w>
b eing</w>
at ing</w>
c es</w>
fü h
an s
d u</w>
tr y</w>
e very</w>
br au
W e
p i
or s</w>
b is</w>
do ing</w>
H e</w>
M illi
er g
s ho
w an
po s
L i
p assi
s er
1 0</w>
ver su
si de</w>
I f</w>
le ar
stor y</w>
Jahr e</w>
a u</w>
S ta
En t
N e
ma g
il l
an y
M an</w>
tion al</w>
st ru
n er</w>
B ei
sel f</w>
den ken</w>
pl an
s ch</w>
g ut</w>
syst em</w>
an ce</w>
c ol
s äch
s ci
mus s</w>
s m
M ar
p s</w>
t ei
f ahr
om e</w>
a ch</w>
ne t</w>
com m
e ver</w>
sel bst</w>
U ni
un i
m ein</w>
ag a
mö g
v el
call ed</w>
ah r</w>
wa ys</w>
y e
n ing</w>
g ing</w>
re d</w>
di c
m ei
A b
ex per
wi chti
o ff
sch on</w>
' d</w>
T a
p ri
säch lich</w>
d enn</w>
d ung</w>
ä t
b ar
perc ent</w>
ar y</w>
sp re
x t</w>
p ic
A fri
th ree</w>
ma de</w>
N un</w>
t t</w>
is ch</w>
w oh
n ed</w>
mö chte</w>
des ig
sp ec
h and
den en</w>
F or
l es</w>
ih nen</w>
zus am
I hr
S a
w ell</w>
I de
ter n</w>
i te</w>
wie der</w>
qu est
vi elleicht</w>
w om
at es</w>
P o
W is
l er</w>
d an
bu il
po li
ar i
for e</w>
ei ten</w>
s er</w>
ne u
S y
at sächlich</w>
na ch
f ten</w>
C h
v en</w>
kom mt</w>
b re
v is
n en
illi on</w>
n or
m i
ge f
t ell</w>
in t</w>
2 0</w>
pl a
wh y</w>
al en</w>
le t</w>
be st
en g
ar ti
G eh
Pro z
imp ort
chan ge</w>
F r
e ff
da von</w>
ye ar</w>
Au f
u tion</w>
g s</w>
so ci
fac t</w>
f ind</w>
d ri
bel ie
es en</w>
l er
i ch
hal b</w>
a de</w>
P er
m is
t es</w>
c our
c or
j em
ol e</w>
G en
i l</w>
Bei sp
o wn</w>
un den</w>
wei se</w>
e p</w>
a tions</w>
i z
Geschi chte</w>
hat ten</w>
h eute</w>
gan z</w>
sh ould</w>
hu man</w>
gen d
sch ein
ö ß
ide a</w>
ter s</w>
h ig
M it
ex p
H ier</w>
lo w</w>
b ri
gre at</w>
to day</w>
tal k</w>
iel en</w>
w al
st s</w>
o k
s s</w>
l au
au m</w>
Kin der</w>
t ly</w>
5 0</w>
di g
a ti
y p
e -
te chnolog
s ensch
ut z
it ät</w>
k te</w>
ih n</w>
r y</w>
ein ige</w>
o c
star ted</w>
Di ese</w>
e i</w>
us ed</w>
bi g</w>
W ei
H er
le ben</w>
l assen</w>
af ter</w>
br ingen</w>
d ort</w>
n s</w>
kön nte</w>
r is
, 000</w>
ig er</w>
b in
In di
ic e</w>
F re
l ast</w>
in st
c l
ch es</w>
woll en</w>
t s
thou ght</w>
t in
w ent</w>
i g</w>
ag o</w>
w in
än dern</w>
p er</w>
cour se</w>
un ter</w>
pa ar</w>
b ab
G o
dre i</w>
lo b
J ahr</w>
wi th
k es</w>
G el
b it</w>
tim es</w>
gi ve</w>
s or
be fore</w>
wer de</w>
m einer</w>
än der
dar über</w>
t or</w>
k tion
w ing</w>
pro blem</w>
lich keit</w>
M on
wur den</w>
om ent</w>
o ff</w>
n un</w>
pl ace</w>
sch e</w>
n is</w>
h ear
bes ch
k no
R o
import ant</w>
gen au</w>
t wor
z eu
gr öß
ei gen
ti c</w>
si eht</w>
s hi
g ent
st ri
U m
t atsächlich</w>
m em
ol o
ra l</w>
an other</w>
en de</w>
sensch a
or gan
S tu
B er
bet ter</w>
in v
st ill</w>
m ight</w>
ea d</w>
ch ts</w>
Th ank</w>
w ater</w>
ro p
ga b</w>
B o
l ung</w>
c ul
ne ver</w>
le a
n am
on der
C om
st er
ent wick
e f
b eit</w>
son dern</w>
par t</w>
happ en
forma tion</w>
d at
be de
f am
na h
inter est
y si
un de</w>
star t</w>
wis chen</w>
B il
tt ing</w>
n um
k er</w>
s eine</w>
Beisp iel</w>
an c
g es</w>
ge ther</w>
ut zen</w>
er ung</w>
s how</w>
hr end</w>
M us
w ahr
. .</w>
ou s
p le
gen er
l and</w>
tr u
f re
b ar</w>
E x
hi m</w>
ar d</w>
P ar
unser er</w>
stell t</w>
ti g</w>
N ach
au t</w>
to gether</w>
W ass
k a</w>
den ke</w>
Pro blem</w>
ic al</w>
D es
ne c
og ar</w>
Geh ir
Le ben
ne xt</w>
W h
Al s</w>
z wischen</w>
B u
oo l</w>
l l
c ame</w>
k am</w>
bra in</w>
. ..</w>
i en</w>
wä re</w>
t ung</w>
ür lich</w>
ea ch</w>
E in</w>
i gen</w>
comp le
w us
sch n
ge macht</w>
aga in</w>
technolog y</w>
j a</w>
er te</w>
s am
ic ally</w>
s etz
do ch</w>
st ra
v om</w>
N o
T eil</w>
A mer
g ung</w>
st at
Ge b
Amer ic
ne ue</w>
erz äh
c ess</w>
m er</w>
st än
da zu</w>
fe w</w>
amp le</w>
pos si
C hin
fo und</w>
ir gend
me an</w>
l ess</w>
B ec
ch il
c lo
wei ter</w>
or d
h ät
si mp
wei ß</w>
ar s</w>
pro duc
k o
we en</w>
s ogar</w>
all en</w>
i mag
ä d
em p
dur ch
op p
loo king</w>
k ein</w>
t or
W hen</w>
N a
com es</w>
zei gen</w>
M en
glau be</w>
ein mal</w>
auf en</w>
for m</w>
c ent
y be</w>
c ri
bet ween</w>
sch ei
Ta g</w>
ver si
Di es</w>
po int</w>
to o</w>
r ü
n ie</w>
g ten</w>
g lob
de vel
l ar
n ung</w>
d one</w>
T E
fun ktion
et s</w>
S e
in cre
er n
ö ff
l li
en den</w>
j ect</w>
a st
Bec ause</w>
c er
K om
li ght</w>
ger ade</w>
S u
ver schie
k eiten</w>
w a</w>
B i
3 0</w>
at z</w>
ü tz
stru c
st and
ex ample</w>
c y</w>
s ort</w>
h ol
n äch
au p
arbei ten</w>
k i
l ong</w>
N at
ge st
li c
dr en</w>
mar k
d ru
Fra ge</w>
s econ
quest ion</w>
Z ei
oh ne</w>
l ine</w>
lo ve</w>
her aus
e g
O k
te l</w>
po si
da für</w>
20 0
tu r</w>
comp u
we gen</w>
si g
P h
zur ück</w>
er sten</w>
ni chts</w>
gro ß
wür den</w>
re al</w>
me di
z wei
li ve</w>
wom en</w>
G er
Fr auen</w>
passi ert</w>
H ow</w>
dat a</w>
wan ted</w>
ken nen</w>
c al</w>
ihr en</w>
a ff
it u
ei te</w>
re ad
l ä
ge m
W ir
de l</w>
kon nte</w>
en d
ü h
uns er</w>
Ne w</w>
ab ili
under stand</w>
k e
wh ole</w>
spre chen</w>
Ar beit</w>
chil dren</w>
wor king</w>
m ensch
Proz ent</w>
E ine</w>
c u
ri chti
i ly</w>
am en</w>
p on
o s</w>
n is
as ch
f ig
c ap
sel ves</w>
ß t</w>
woh l</w>
ver stehen</w>
er ste</w>
em s</w>
Ü ber
T o
dar an</w>
c all</w>
al ity</w>
W ar
us ing</w>
wä hrend</w>
je der</w>
i a</w>
th er
re as
tr ying</w>
z ed</w>
w o
Milli onen</w>
vi e
i k</w>
per son</w>
Ihr e</w>
pu bli
fac e</w>
oll ar</w>
ti gen</w>
sp i
sch ool</w>
z ah
c ra
R ei
t ten</w>
al ways</w>
ul ar</w>
su b
ec ts</w>
war um</w>
a way</w>
m illion</w>
ab ei</w>
d ra
bede u
n ess</w>
Me di
et wa</w>
Ide e</w>
econ om
v en
tic al</w>
comm un
Sy st
un kt</w>
scha ffen</w>
v al
le c
soll te</w>
be kommen</w>
b or
belie ve</w>
in ess</w>
D an
J e
an der</w>
o s
ges ehen</w>
ru pp
ev ol
ck en</w>
c le
r ä
er st</w>
letz ten</w>
tr ans
ar t</w>
1 00</w>
z er
ver n
e as
Re gi
ma y</w>
an ge
exper i
he al
soll ten</w>
sa gt</w>
olo gi
M in
f our</w>
h um
Inter net</w>
no v
k ur
M ö
Di es
fe el</w>
ran k
Q u
f ast</w>
m einen</w>
R i
al is
ac k
ou t
h ö
d el
F ü
L and</w>
in nen</w>
com ing</w>
zi em
all s</w>
woll te</w>
w ri
gro ße</w>
ber ei
i cht</w>
f al
m y
gan ze</w>
v oll
ä tz
st an
as k</w>
Ok ay</w>
te te</w>
kön nten</w>
ro om</w>
m einem</w>
po wer</w>
b us
a tive</w>
mei sten</w>
ell s</w>
ac t</w>
W or
H a
h in</w>
ep t</w>
st re
p f
ic s</w>
desig n</w>
devel op
Com pu
nat ürlich</w>
at t
sp e
coun try</w>
. 000</w>
pro du
hel p</w>
ge gen</w>
en erg
on es</w>
me ans</w>
ki ds</w>
c ou
wei ter
ma ybe</w>
m ent
es si
ziem lich</w>
thin king</w>
in formation</w>
bo ok</w>
v o
to ok</w>
et er</w>
ö s
lan g</w>
zei gt</w>
su ch</w>
ä hr
d abei</w>
ex c
wichti g</w>
O ne</w>
in c
ei gent
el ec
k un
d ro
mon ey</w>
iel e</w>
ihr er</w>
cre ate</w>
M al</w>
i ons</w>
d ge</w>
op e</w>
con nec
We g</w>
A ll</w>
hör en</w>
c li
S o
ag t</w>
Wis senscha
ch o
every thing</w>
de c
h under
b auen</w>
re ali
bes ser</w>
B ild</w>
ph ysi
lo s
F l
par tic
ne e
E u
K re
h än
and s</w>
N or
n er
en ds</w>
s ec
g ab
at h</w>
z ing</w>
sp ace</w>
Te chnolog
or y</w>
lich er</w>
G l
sa ge</w>
b il
Th ese</w>
pro bab
glau b
w at
or en</w>
ma king</w>
W el
pl ay</w>
m a</w>
ing t</w>
sen se</w>
fi ve</w>
ein ander</w>
G ro
num ber</w>
ic i
W er
dar auf</w>
b ro
e y
Pro ble
f äl
en en</w>
wel che</w>
G em
i le</w>
ta in</w>
be come</w>
s in
or i
b is
stu d
qu ite</w>
en ough</w>
w eit</w>
Gel d</w>
f as
b lo
to p</w>
di g</w>
Wass er</w>
y o
ge l</w>
brau chen</w>
O h</w>
ron g</w>
fo od</w>
th s</w>
wen iger</w>
M an
n et
kl einen</w>
a b</w>
ut es</w>
us s</w>
a pp
ver b
fahr en</w>
En de</w>
Mö g
ge tting</w>
t yp
f te</w>
er rei
K ör
c ur
sm all</w>
ma ti
re m</w>
ul t</w>
s ha
for m
con tro
possi ble</w>
f ut
bedeu tet</w>
Sa che</w>
F am
U S
zusam men</w>
secon d</w>
es sen</w>
read y</w>
da chte</w>
Y or
D ollar</w>
ro ss</w>
it al</w>
M y</w>
pro gra
al ten</w>
Pro je
d d
c ity</w>
ar e
Technolog ie</w>
F o
jem and</w>
fan gen</w>
em ent</w>
D aten</w>
g ed</w>
di vi
war d</w>
w ach
W o
scha ft
p le</w>
1 5</w>
buil ding</w>
f ul
bes t</w>
zusam men
sch lie
h ome</w>
P l
uns eren</w>
se t</w>
ver s
probab ly</w>
mög lich</w>
hal f</w>
ä ter</w>
s ing
ch er
v el</w>
ent ly</w>
zur ück
ver wen
K ar
D ank</w>
ut ter</w>
p ra
happen ed</w>
le ft</w>
interest ing</w>
M ann</w>
energ y</w>
en ten</w>
h and</w>
D ann</w>
r at
H ere</w>
vi er</w>
u le</w>
wh e
w ed</w>
t om
s ei
gr ou
tal king</w>
fut ure</w>
wä r
hör t</w>
I m</w>
A m
tr an
en e</w>
ag es</w>
tri es</w>
stu ff</w>
ver sch
a tion
ih m</w>
T ei
k ti
k in
a tionen</w>
eigent lich</w>
D o
Chin a</w>
pro ble
ma ch
oll ars</w>
kl eine</w>
t an
res pon
S eite</w>
L ei
f lo
pl ac
ö h
pi ec
f il
go vern
Des ig
ff e</w>
tt y</w>
ein z
Ih r</w>
en si
Gehir n</w>
t old</w>
P lan
s ure</w>
B l
f ron
abili ty</w>
g ri
kun ft</w>
sci ence</w>
op er
f is
et y</w>
War um</w>
k tion</w>
s es</w>
gro ßen</w>
be au
ch ni
m il
S he</w>
vi ron
shi p</w>
p ho
e qu
H o
soci al</w>
ou se</w>
ch ar
th ers</w>
with out</w>
b al
o l</w>
sy ch
p or
d ollars</w>
is e</w>
der s</w>
b s</w>
ous ly</w>
D enn</w>
führ t</w>
L u
st eht</w>
de ci
we e
sch i
h y
N o</w>
Le t</w>
Afri ca</w>
gen om
ul ation</w>
e ben</w>
z ieren</w>
any thing</w>
ver se</w>
F il
ch it
bu ild</w>
Wei se</w>
pre tty</w>
c are</w>
at ely</w>
M än
S tr
M at
o t</w>
en te</w>
m oment</w>
inter ess
mo ve</w>
ges agt</w>
en viron
w are</w>
g li
führ en</w>
Men ge</w>
Fra u</w>
sch auen</w>
gan zen</w>
am er
m us</w>
coun tries</w>
füh l</w>
sa ys</w>
wahr schein
p op
li ves</w>
O K</w>
au ß
sa m</w>
G rupp
u p
TE D</w>
O b
versu chen</w>
ig keit</w>
k einen</w>
sch le
den ti
se en</w>
w under
ler nen</w>
happ en</w>
go es</w>
ge t
ac ross</w>
sa w</w>
or e</w>
kl är
fü n
ch s</w>
sci enti
da ys</w>
S el
beg inn
V i
R aum</w>
k ten</w>
har d</w>
ab sol
S tra
t on</w>
el se</w>
je den</w>
L ie
Wh y</w>
u g</w>
simp le</w>
setz en</w>
e duc
F ir
j o
ma kes</w>
Sta d
D ar
for t
1 0
ch mal</w>
to gra
d -
B r
al t</w>
so zi
h an
D en
ni em
Yor k</w>
Ent wick
hät te</w>
glau ben</w>
chn ologi
wor ks</w>
c ase</w>
V ide
h aup
a ma
gen d</w>
lich es</w>
Per son</w>
c ar</w>
In forma
ver k
en z</w>
Gr und</w>
best imm
I s
li ving</w>
ha ving</w>
ex ist
st e
sch rei
in du
K op
th ough</w>
experi ence</w>
f -
E le
happ ens</w>
4 0</w>
t schaft</w>
as ked</w>
E ar
b ad</w>
viel en</w>
g rei
ac c
L in
ck s</w>
s ing</w>
un glaub
stell ung</w>
compu ter</w>
l on
F or</w>
An twor
sa h</w>
li z
D a</w>
lo s</w>
V ielen</w>
Gem ein
B et
Dan ke</w>
Zu kunft</w>
u te</w>
m al
d au
an twor
sp äter</w>
Sp ra
D N
un der</w>
le gen</w>
ier te</w>
pic ture</w>
p at
z o
wh ile</w>
l s</w>
eigen en</w>
J etzt</w>
l ater</w>
K ind</w>
pa ti
kon nten</w>
in dem</w>
as h
S on
to s</w>
öff ent
sch wi
pr ä
ic k
hig h</w>
J a</w>
C o
wen ig</w>
eri kan
l än
bei m</w>
su pp
spec i
s eit</w>
proble ms</w>
in divi
S in
vi de
indivi du
Milli ar
z in
u ten</w>
res s</w>
pro t
W i
Or t</w>
hei ßt</w>
m ind</w>
lear n</w>
her aus</w>
el s</w>
funktion iert</w>
reas on</w>
z ent
thou s
si cher</w>
genom men</w>
a tiv
Syst em</w>
de p
Z ah
Leben s
lan gu
ge stellt</w>
Pro du
T r
mat eri
fam ily</w>
glei ch</w>
al le
wahrschein lich</w>
pro cess</w>
e an</w>
H and
mem ber</w>
m ents</w>
ol s</w>
an z
B es
f all</w>
te ach
gem ein
e ten</w>
A s</w>
s h</w>
lan ge</w>
tur n</w>
U .
wel t
bas ically</w>
lie gen</w>
dis co
th o
st ic</w>
j u
änder t</w>
bi li
ö l
an ti
res ear
ma te</w>
f lu
Er de</w>
N eu
M oment</w>
nis se</w>
bus iness</w>
ra ft</w>
n utzen</w>
kom ple
wor den</w>
lie gt</w>
d ungen</w>
b it
Sch ul
ein zi
sa ying</w>
s ed</w>
W ahr
Proble me</w>
Ar bei
sch ö
K o
D a
ou ght</w>
er inn
D u</w>
sp r
l ö
in side</w>
al ität</w>
in tel
lan g
ta tion</w>
L and
G ra
em o
pro f
je des</w>
hel fen</w>
f er</w>
be tra
as se</w>
Ear th</w>
zi eh
sing le</w>
schn ell</w>
in ed</w>
con tin
gu te</w>
s einer</w>
yo ung</w>
b an
Ges ell
su c
gu y</w>
en ces</w>
de ck
ti l</w>
de fin
pr o</w>
po wer
fun den</w>
E l
al most</w>
w and
per son
g st</w>
f ar</w>
o ft</w>
m m</w>
plan et</w>
a x
our s</w>
on ce</w>
K or
y -
ide as</w>
glob al</w>
ges t</w>
erzäh len</w>
Or gan
exper im
di rec
y et</w>
ul ti
sp ea
ur y</w>
scha ften</w>
ex tre
c ke</w>
äh r</w>
heal th</w>
ge ts</w>
h or
gef ähr</w>
f li
Gro ß
ä m
p e</w>
h äl
gen ug</w>
fra gen</w>
F all</w>
f ar
P u
Ges und
f est
L eu
c anc
bes s
ander s</w>
ges am
bi olog
b lei
L a
sp ielen</w>
ge gen
ir d</w>
whe ther</w>
ti sche</w>
loo ked</w>
d ent</w>
o ver
ic k</w>
ti ge</w>
fün f</w>
t te</w>
or der</w>
bo th</w>
ans wer</w>
In st
with in</w>
loo ks</w>
Eu rop
ün st
pro ject</w>
all er</w>
neu en</w>
al ready</w>
vie w</w>
unser em</w>
in ing</w>
f alls</w>
brau cht</w>
tr ue</w>
inn er
incre di
hear d</w>
beg ann</w>
w onder
su chen</w>
w rong</w>
f rü
en z
zi ehen</w>
at or</w>
K un
F lu
no thing</w>
beau ti
Stad t</w>
z eh
ell er</w>
näch sten</w>
Wis sen</w>
US A</w>
ri cht</w>
hi story</w>
for der
b illion</w>
t ors</w>
op en</w>
og ni
syst ems</w>
some one</w>
s li
M utter</w>
g ar</w>
br ing</w>
tur es</w>
mo v
mat ter</w>
verschie den
h ope</w>
T i
P f
si x</w>
ke ep</w>
g ir
e d
ra te</w>
hig h
ge hört</w>
gan g</w>
ch ild</w>
D o</w>
un t</w>
Sch ri
u al</w>
re ad</w>
des sen</w>
L ehr
b ur
er weise</w>
bes onder
re gi
my self</w>
K l
0 s</w>
bis schen</w>
piec e</w>
Compu ter</w>
vi ce</w>
un gefähr</w>
sch la
S k
publi c</w>
do c
a ir</w>
richti g</w>
de ut
c ells</w>
b ly</w>
W oh
P e
ber s</w>
mus ic</w>
l te</w>
b ig
o ften</w>
an im
ti schen</w>
is su
erg ie</w>
de st
wor ds</w>
t ät</w>
re member</w>
P ati
cle ar</w>
1 2</w>
st ec
f ic</w>
M u
ro bo
imag ine</w>
glei chen</w>
buil t</w>
sp ra
ea h</w>
k el</w>
hei ten</w>
de m
A f
bra cht</w>
S te
om e
inv est
ch all
Z us
je de</w>
d lich</w>
be ha
F äh
Uni ted</w>
Ide en</w>
tra gen</w>
sh ar
Ex per
gl ück
ec ted</w>
beauti ful</w>
C on
C A</w>
de mo
t ely</w>
l ed</w>
Sch ule</w>
6 0</w>
m et
t ä
t est</w>
k re
Informa tionen</w>
tic s</w>
t au
h und
nat ure</w>
f ic
ama zing</w>
K rie
t ere</w>
t -
cou ple</w>
Leu ten</w>
For sch
con c
commun ity</w>
äh n
is m</w>
canc er</w>
at ur
ra di
mon ths</w>
langu age</w>
b st
Er fahr
s einen</w>
ch ter</w>
wor d</w>
we g
tu al</w>
t ter</w>
contro l</w>
ch em
sen ti
e ase</w>
J u
stat t</w>
lä s
le g
bre a
vide o</w>
se i</w>
re den</w>
spec ies</w>
an i
se l</w>
t em
plac es</w>
ff t</w>
ap pro
mo ther</w>
every body</w>
dd le</w>
j ob</w>
ti g
sa gten</w>
s qu
p ul
we g</w>
la ge</w>
vi r
f el
utz t</w>
s eri
entwick elt</w>
M äd
ni ght</w>
an zu
Ro bo
Plan eten</w>
Kör per</w>
h r</w>
cht ung</w>
M it</w>
ver ändern</w>
be kan
evol ution</w>
r in
wie der
tei len</w>
le vel</w>
M eine</w>
F ar
Afri ka</w>
s -
Geb äu
s atz</w>
lich keiten</w>
f and</w>
se qu
in e
t schaft
on -
ic ro
grou p</w>
is cher</w>
dar um</w>
B ri
versi ty</w>
uni verse</w>
h ead</w>
fin det</w>
Po li
zei ch
govern ment</w>
über all</w>
un til</w>
al lo
DN A</w>
our selves</w>
l ing</w>
ein s</w>
ac tly</w>
S pe
ta king</w>
stor ies</w>
glei ch
ch ed</w>
nen nen</w>
Milliar den</w>
En ergie</w>
Antwor t</w>
er kennen</w>
auß er
Dies es</w>
pr is
og ra
di ch</w>
D e
n ei
eu ch</w>
Indi a</w>
B au
g ar
ap er</w>
the m
comple tely</w>
D ur
sch ni
organ iz
me dic
educ ation</w>
u ally</w>
te ten</w>
stand ing</w>
o ben</w>
in nov
ander es</w>
Fra gen</w>
En gli
tran sp
p sych
h ouse</w>
gro und</w>
ch ing</w>
arbei tet</w>
ä re</w>
ch en
P unkt</w>
tra di
schi ed</w>
K rank
2 5</w>
sch ri
ih rem</w>
hei ts
fri ends</w>
deci ded</w>
Proje kt</w>
w äh
ou th</w>
ma ge</w>
S tim
al y
ell ing</w>
Sch l
ma chte</w>
mus ste</w>
Mo d
Fü r</w>
st en
fron t</w>
U r
k amen</w>
groß arti
19 9
on d
il ie</w>
f und
ex actly</w>
beha vi
aus ge
Gen er
st ate</w>
nah men</w>
j ects</w>
Zus am
N ein</w>
happen ing</w>
S ti
Americ a</w>
ru n</w>
to t
j e</w>
it self</w>
Jahr hunder
z t</w>
or d</w>
na tional</w>
mo del</w>
er ten</w>
cul ture</w>
berei ts</w>
Go og
For m</w>
j en
ap pe
oug h
p en
c ro
c ess
L ös
H ar
ir e</w>
c ir
kl ar</w>
kin ds</w>
St ates</w>
i denti
Americ an</w>
li cht</w>
bec ame</w>
n ame</w>
anim als</w>
Li cht</w>
Ar ten</w>
sto p</w>
oh n</w>
h eu
A k
ph one</w>
er klär
c le</w>
Nat ur</w>
wom an</w>
stud ents</w>
he ar</w>
et t
be vor</w>
s einem</w>
ben utzen</w>
Min uten</w>
resear ch</w>
lear ned</w>
Mäd chen</w>
8 0</w>
su m
gen au
Män ner</w>
Bu ch</w>
verschieden e</w>
tur ns</w>
sin ce</w>
B ab
sh are</w>
sch au
ob ach
m ust</w>
errei chen</w>
besonder s</w>
ti gt</w>
in st</w>
ti k</w>
nam ens</w>
le ge</w>
f rei
D em
sp iel
soci ety</w>
ger ne</w>
bo o
P ri
them selves</w>
ta ge</w>
stu di
lar ge</w>
k new</w>
it ed</w>
f än
H il
some body</w>
Fam ilie</w>
ver l
stu dy</w>
min utes</w>
M ein</w>
G od</w>
ta in
ord in
it ing</w>
S ol
hät ten</w>
c at
sch l
ri chten</w>
hu ge</w>
hear t</w>
gh ts</w>
g ame</w>
E s
col lec
C har
f iel
dar in</w>
ali en</w>
A t
l and
b are</w>
G re
Ent schei
pl es</w>
g lich</w>
un ds</w>
quest ions</w>
le b
Zei t
Th e
Grupp e</w>
th re
ra ther</w>
in es</w>
gew öh
comp any</w>
Unter nehmen</w>
Th em
wor ked</w>
happ y</w>
Organ is
H and</w>
Au gen</w>
st ei
K ul
ver ed</w>
is ion</w>
environ ment</w>
B ro
struc ture</w>
st ütz
fo c
L o
B eh
h ours</w>
e ben
cre ated</w>
am o
aga inst</w>
Ber ei
- S
ent ed</w>
v ari
opp ort
O der</w>
u ral</w>
m ol
au di
W eil</w>
tr ä
ti eren</w>
te xt</w>
1 1</w>
ol le</w>
gu ys</w>
K li
Geschi chten</w>
war ds</w>
ha ps</w>
Gesell schaft</w>
schlie ß
al es</w>
Vi elleicht</w>
Th en</w>
Gr und
einz el
M asch
ti v</w>
t on
a ir
B ür
il s</w>
ein igen</w>
a v
F ran
un ge</w>
ten ti
des t</w>
c r
än der</w>
b ir
si te</w>
p ur
den ce</w>
Mus ik</w>
F ol
ück en</w>
wis senscha
ri es
Spra che</w>
li ter
k tur</w>
C ar
si tz
cent ury</w>
am es</w>
partic ular</w>
gen an
the mati
je dem</w>
Zusam men
n u
b lu
Do ch</w>
l en
ab or
Indi en</w>
Ge gen
Er geb
ge funden</w>
be ein
ar ly</w>
al ong</w>
ad v
Wissenscha ft</w>
H I
con t
G an
Bil der</w>
pr in
ig keiten</w>
me as
k ä
gen de</w>
R es
some times</w>
so und</w>
fig ure</w>
er ing</w>
C hr
S ü
tra c
m es
f ur
Ge dan
0 ,000</w>
v ö
ro w</w>
le ast</w>
is h
z eit</w>
intel li
con si
be wegen</w>
Ver bin
se x
le ben
re cht</w>
Au f</w>
vor stellen</w>
u ri
p an
ac tion</w>
Gesch ä
ga ve</w>
fis h</w>
entwick eln</w>
bas ed</w>
Ge fühl</w>
lo ts</w>
for t</w>
r .</w>
gen e
diff ic
tur ned</w>
lo se</w>
irgend wie</w>
sto ff</w>
ier ten</w>
gen s</w>
every one</w>
c ell</w>
H in
C ol
gr ün
g ern</w>
Sp iel
Pro gra
ra tion</w>
fl ä
Leben s</w>
Goog le</w>
in ten
geb aut</w>
ft ware</w>
di re
y ed</w>
o thers</w>
el e
N i
sol l</w>
mark et</w>
vol ution</w>
äm lich</w>
um ent</w>
nat ural</w>
ear ly</w>
at ten
An gst</w>
tre ffen</w>
thous ands</w>
M or
öl k
verschie denen</w>
p ast</w>
Mög lichkeit</w>
be wus
wh at
vi ol
in s
dis ease</w>
br ingt</w>
Mat eri
li eren</w>
fan g</w>
al ax
sc ale</w>
i ve</w>
er halten</w>
H ei
U m</w>
Kop f</w>
m mt</w>
lear ning</w>
d om
z äh
tr ei
ne ws</w>
be mer
an g
Wissenscha ft
B est
A c
unter schie
in vol
V ater</w>
Pu bli
un ch</w>
ti ce</w>
st ör
l le</w>
kno wn</w>
el ten</w>
u es</w>
k ey</w>
ier ung</w>
differ ence</w>
G lei
st es</w>
sel f-
sch wer</w>
out side</w>
inst ead</w>
c al
be we
a gi
ta ken</w>
amer a</w>
St unden</w>
woll ten</w>
t a</w>
eh er</w>
di men
Regi erung</w>
th ird</w>
se chs</w>
pos ed</w>
man chmal</w>
gesch i
chan ged</w>
K ur
mo ving</w>
einzi ge</w>
Go tt</w>
w es
verwen den</w>
t aus
s ön
gel n</w>
di st
d y
c as
Sa chen</w>
un k
ist an</w>
in spi
be sten</w>
c ed</w>
b ein
Uni vers
5 00</w>
enti re</w>
Ver änder
K ol
tra g</w>
organ is
mach ine</w>
Wel t
2 00</w>
z iert</w>
er gi
eng ine
ein ig
H ause</w>
rel ation
rei s</w>
f le
be h
inter essi
er war
z es</w>
s our
en zen</w>
b ed</w>
B ü
rel ig
na tion
läs st</w>
elec tri
bei den</w>
as st</w>
Desig n</w>
äu me</w>
am ent
S ek
O n
F ahr
o il</w>
mit t
Stu di
ver ändert</w>
rie ben</w>
n ämlich</w>
haup t</w>
R u
m illi
füh len</w>
do m</w>
c y
are a</w>
a h</w>
N etz
Ma cht</w>
st ens</w>
per f
jem an
ul es</w>
p h</w>
inner halb</w>
en -
Kin dern</w>
zu stellen</w>
zeu g</w>
clo se</w>
I s</w>
y our
stell te</w>
im pro
gel e
en n
li k
ho ch</w>
get an</w>
ent fer
mensch lichen</w>
gr und</w>
fe el
V or</w>
th y</w>
sam m
olog ie</w>
kno w
Flu g
re g
j our
f ree</w>
ex pla
ch tet</w>
Vide o</w>
S ich
Gebäu de</w>
interess an
Pati enten</w>
I r
stan den</w>
her um</w>
ey es</w>
at s</w>
Be zieh
si cher
en or
R a
1 8</w>
ä us
me t</w>
in k</w>
em e</w>
pop ulation</w>
n al</w>
ge bracht</w>
O r</w>
um in
st i
par ents</w>
gi ven</w>
di r</w>
ar chit
Auf gab
your self</w>
wonder ful</w>
r ück
ac tiv
ab en</w>
schö n</w>
gen heit</w>
F rei
pho togra
fam ili
fa ther</w>
ent lich</w>
der en</w>
as sen
un ity</w>
schrei ben</w>
El tern</w>
D is
par ts</w>
ob vi
W ort</w>
Au to</w>
lea ve</w>
W ah
Publi k
sch o
gewöh n
M i
wal k</w>
ti ert</w>
ter ms</w>
ta kes</w>
sp ro
si cht
se eing</w>
pro vi
er lau
Dies er</w>
Chr is</w>
k ill
ik ro
fan ta
f elt</w>
el li
ci al</w>
au ßen</w>
se ven</w>
p ed</w>
m icro
lli g</w>
gr und
et ing</w>
t eil</w>
mm er</w>
f eh
eas y</w>
H aus</w>
über haupt</w>
tiv en</w>
si on
per haps</w>
co ol</w>
am m
0 -
wissenscha ft
vol l</w>
st imm
nor mal</w>
at ure</w>
ab hän
Univers um</w>
versu cht</w>
ver age</w>
ment al</w>
k ers</w>
a -
unglaub lich</w>
re pres
po in
beg innen</w>
aus zu
Wass er
R au
pra c
ni mmt</w>
d ings</w>
cer tain</w>
beg an</w>
W al
z war</w>
t able</w>
st ed</w>
lö sen</w>
dur ing</w>
d ly</w>
beginn ing</w>
z un
to m</w>
schein t</w>
res t</w>
ing er</w>
c an
Wir k
ti s
schwi eri
nee ds</w>
ma j
commun ic
Sich er
v e
ti ci
si tu
pri v
par t
diffic ult</w>
T at
t op
schließ lich</w>
r en</w>
fin ally</w>
ro te</w>
k rie
am s</w>
T ran
1 8
x i
stän dig</w>
b au
O ber
L age</w>
si cht</w>
on line</w>
bra chte</w>
spe zi
si ze</w>
ru p
con ver
Exper im
be obach
V ir
J ap
ing ly</w>
fl us
am p</w>
alle m</w>
fri end</w>
ent schei
L änder</w>
Fil m</w>
tr au
l äu
h il
erz eu
bili ty</w>
beh ind</w>
TE D
T er
F in
ob s</w>
fan den</w>
chall en
zah l</w>
ran ge</w>
r en
ne y</w>
is ches</w>
i mage</w>
comp an
amo unt</w>
Her aus
t end</w>
su per
de al</w>
ab or</w>
Te chni
P rä
Erfahr ung</w>
what ever</w>
Y eah</w>
M is
nee ded</w>
mi ddle</w>
lo cal</w>
e vi
P ap
St ück</w>
wi ll
r un
or ig
f ly</w>
co st</w>
Gl ück</w>
p aper</w>
mer k
hin ter</w>
hand s</w>
am erikan
me chan
know le
tic ally</w>
häl t</w>
h on
U. S
sta un
ris e</w>
power ful</w>
den ten</w>
c a
St äd
Heraus forder
sa che</w>
reali zed</w>
pp ed</w>
gro ß</w>
eh men</w>
T el
interest ed</w>
om en</w>
bi o
comm on</w>
econom ic</w>
bal d</w>
näch ste</w>
nah m</w>
mus sten</w>
con di
fiel d</w>
st eh
s cre
be d
for ce</w>
tei l
olog y</w>
hr en</w>
bl ack</w>
Pe ople</w>
B ev
el te</w>
bar en</w>
ö tz
lon ger</w>
lo g
Din gen</w>
ten s</w>
Publik um</w>
Be i</w>
or ie</w>
glei che</w>
H aup
G i
te am</w>
t ut</w>
simp ly</w>
los sen</w>
ie t</w>
hum an
er sch
con f
Fre unde</w>
v il
sy n
r a</w>
me an
St ellen</w>
Ob je
us h</w>
mö gen</w>
i tion</w>
ge geben</w>
ful l</w>
e ful</w>
de te</w>
K at
B as
l esen</w>
gro w</w>
Ti ere</w>
un ten</w>
res our
qu ick
mög lichen</w>
g s
fol gen</w>
T ra
S tru
S ter
K an
t at</w>
indu str
compan ies</w>
c oll
Sp iel</w>
r or
ok ay</w>
m ulti
Entwick lung</w>
wee k</w>
um s</w>
tri ed</w>
m eines</w>
flä che</w>
S itu
S i
pre dic
po tenti
po se</w>
g one</w>
eri ka</w>
b ack
b a
ser v
per i
gro w
ci ties</w>
boo ks</w>
behavi or</w>
Z wei
on d</w>
wei tere</w>
on nen</w>
S ome</w>
Gr ün
val ue</w>
p unkt</w>
p ec
medi a</w>
Wor ld</w>
t lich</w>
letz te</w>
le bt</w>
is mus</w>
ill s</w>
ac ter
W in
Sin n</w>
L assen</w>
An fang</w>
k ehr
de ath</w>
Gr unde</w>
fund ament
eigen e</w>
Er fol
wi t
ster ben</w>
g in
ei ght</w>
Robo ter</w>
Wer k
A t</w>
sur vi
kä mp
for ward</w>
ut ting</w>
quick ly</w>
K ap
us es</w>
sa tion</w>
rie b</w>
mensch liche</w>
ent er</w>
b s
ag er</w>
oc ean</w>
nah me</w>
fun c
ei ther</w>
as h</w>
E i
w elt</w>
e at</w>
B ar
st age</w>
rec ogni
bor n</w>
auf zu
wus ste</w>
sho ws</w>
U.S .</w>
Kun st</w>
ti sch</w>
sp end</w>
inc lu
Mög lichkeiten</w>
dire kt</w>
Z um</w>
P rin
wee ks</w>
sol che</w>
m un
äh ri
z ep
sp ent</w>
po or</w>
ex pl
et z</w>
J ust</w>
H än
l aufen</w>
ili t
fra gte</w>
Unter schied</w>
O z
I st</w>
te chnologi
k aufen</w>
ec k</w>
be l</w>
te chni
ma g</w>
bu y</w>
B an
y er</w>
h ea
fe et</w>
Bil d
sch li
lo w
ges etzt</w>
ak ter
N icht</w>
vö llig</w>
re ality</w>
ob wohl</w>
Te chnologi
w in</w>
pa in
kon tro
gi c</w>
ge führt</w>
c op
be hand
b all</w>
Ele k
wer s</w>
niem and</w>
de f
blei ben</w>
Hil fe</w>
t y
si tting</w>
in f
i zi
grow th</w>
Z iel</w>
W a
F eh
materi al</w>
hum ans</w>
e th
dru ck</w>
dam als</w>
M ü
ötz lich</w>
n ers</w>
lie ben</w>
fal sch</w>
des cri
Ver halten</w>
z z
si ons</w>
m ehr
fort un
l ungs
kur z</w>
je doch</w>
gi ving</w>
g än
Sta aten</w>
Ar chit
wär en</w>
se ver
progra m</w>
Them a</w>
ä f
wri te</w>
typ e</w>
knowle dge</w>
gen den</w>
al er</w>
a il
sp ar
p ay</w>
comple x</w>
b loo
D at
year -
o p</w>
ne u</w>
ho sp
gre en</w>
chan ges</w>
uni ties</w>
st ep</w>
opport unity</w>
om s</w>
e e</w>
Wo che</w>
w ahr</w>
t ou
sch ön
R ight</w>
Den ken</w>
ul ts</w>
t nis</w>
hi er
best eht</w>
b at
Wo chen</w>
t ar
betra chten</w>
Kul tur</w>
st im
lo st</w>
ck t</w>
ci vi
B el
zu g</w>
si l
o -
größ te</w>
ei st
c ing</w>
soll en</w>
re p
k ul
are as</w>
T o</w>
interess ant</w>
ent deck
econom y</w>
T age</w>
H ig
p ass
bo ard</w>
Lehr er</w>
Be we
ver bin
sur face</w>
su d
demo cra
cht s
Fam ili
F ort
sel ben</w>
re du
mo der
b ung</w>
au th
Netz wer
F ern
di gen</w>
R ück
No t</w>
Dur ch
B li
sp o
sch er</w>
0 .000</w>
ö ße</w>
wer t</w>
t elling</w>
ei g
blu e</w>
bewus st</w>
Y es</w>
Lös ung</w>
ter ri
incredi ble</w>
b es</w>
K ö
Es sen</w>
wir tschaft
oo k</w>
de t
br ought</w>
Mon ate</w>
In nov
sch t</w>
mo sp
N ahr
M ein
J o
H el
unterschie d
per s</w>
min ist
h old</w>
es senti
cur r
ani mal</w>
Bewe gung</w>
19 8
sp ek
s mar
fra gt</w>
er fol
am a</w>
ac e
M ikro
Lie be</w>
Af gh
A m</w>
tu ral</w>
ri ed</w>
poli tical</w>
h om
ec tion</w>
an e</w>
En ergi
zu vor</w>
vi ces</w>
qu e</w>
nor m
m el
genau so</w>
geb ung</w>
fi ed</w>
f est</w>
V iele</w>
L ändern</w>
K u
w ann</w>
us s
spea k</w>
reali ze</w>
per sön
lan gen</w>
gel er
ben ö
N amen</w>
L ond
gro wing</w>
Wir tschaft</w>
su g
incre as
e um</w>
c aus
atten tion</w>
a den</w>
wei sen</w>
str at
ä ten</w>
st ing</w>
re qu
mol ec
develop ed</w>
b ut
seh e</w>
o h</w>
n y</w>
la gen</w>
i an</w>
fil m</w>
ch st
bit te</w>
7 0</w>
lie be</w>
challen ge</w>
F u
Be d
geler nt</w>
fol lo
fin an
Ihr en</w>
H erz
F el
zwei te</w>
num bers</w>
er staun
ab o
a verage</w>
technologi es</w>
scienti sts</w>
gr and
ges sen</w>
feel ing</w>
bo x</w>
K ön
sch ic
S en
Proz ess</w>
9 0</w>
zeu ge</w>
t z</w>
lich erweise</w>
M al
ut ely</w>
posi tion</w>
g keit</w>
T ex
Be deut
w rote</w>
fa il
te sten</w>
ou d</w>
ch a
Engli sh</w>
A I
z ü
ma p</w>
wel ches</w>
re ck
hund re
ch e
W it
H off
H e
s ent
indu stri
T ri
A n</w>
us ion</w>
tre ten</w>
p hi
all er
H eute</w>
Fäh igkeit</w>
B ru
wer fen</w>
w ass
unser es</w>
ti st
m ine</w>
h ast</w>
c ut</w>
bo t
zo gen</w>
tur en</w>
ru s</w>
op en
mor ning</w>
em ents</w>
ander er</w>
G u
t ö
physi cal</w>
ne ur
ensi cht
Gedan ken</w>
the ory</w>
produ ce</w>
person al</w>
n an
glück lich</w>
f ing</w>
dr außen</w>
con sci
ag no
H y
s ere</w>
pati ents</w>
k am
ho ch
ful ly</w>
Z ellen</w>
physi c
ec tive</w>
ber eit</w>
under standing</w>
su sta
pla ying</w>
mil es</w>
j ähri
ali for
M et
ur en</w>
t ol
s le
m assi
individu al</w>
in en</w>
ie ten</w>
es se</w>
T ages</w>
P la
M ol
K ran
K oh
wach sen
su p
p oll
ex tra
erinn ern</w>
S ehen</w>
O n</w>
Me tho
wach sen</w>
s l
ni ce</w>
ch ung</w>
audi ence</w>
Spe zi
Nat ürlich</w>
Kre bs</w>
Kon tro
Fü hr
Au tos</w>
we der</w>
verb rei
run ning</w>
os op
b rei
HI V</w>
äch st</w>
wat ch</w>
mit tel</w>
mit tel
i um</w>
heraus zu
bot tom</w>
K en
1 6</w>
se ems</w>
sch ätz
posi tive</w>
cer tain
b an</w>
Technologi en</w>
Krie g</w>
zent ri
st är
st et</w>
liter ally</w>
imag es</w>
h op
ge wis
f un</w>
st elle</w>
s au
ni e
gir l</w>
et te</w>
b illi
G ol
vi d</w>
ver s</w>
tei lt</w>
star ting</w>
ma che</w>
en ding</w>
T al
wh ite</w>
si mil
sch war
s s
res ult</w>
any one</w>
Wissenschaft ler</w>
Mod ell</w>
sam keit</w>
n ern</w>
il osop
gi ves</w>
g ress</w>
au tom
O ur</w>
Gesund heits
zei ge</w>
v est
k or
for ms</w>
car b
Men sch</w>
Bo den</w>
pe di
la te</w>
is h</w>
gener ation</w>
chan ging</w>
Verbin dung</w>
n st</w>
k ü
größ ten</w>
gan gen</w>
cre ating</w>
Un sere</w>
Rei he</w>
Au ß
Al les</w>
to ols</w>
ti vi
pp ing</w>
jem als</w>
gew esen</w>
disco vered</w>
b ist</w>
b and</w>
al one</w>
Zah l</w>
W ach
Lond on</w>
Je der</w>
C O
sh ort</w>
ordin ary</w>
nat ür
ic es</w>
hol en</w>
f liegen</w>
f allen</w>
cli mate</w>
at ors</w>
W er</w>
Sel bst
tr on
su ff
respon si
passi eren</w>
kl eines</w>
i on
as king</w>
W est
R is
Lu ft</w>
E ben
Bev ölk
ü bri
si eben</w>
ar g
R evolution</w>
B ra
vis u
tri fft</w>
lik ely</w>
ges pro
g ingen</w>
beein flus
alifor ni
Uni versi
P a
E very
si m
o d
hundre ds</w>
fü l
er schaffen</w>
c in
Tat sache</w>
Afgh an
3 00</w>
1 4</w>
um p
st ein</w>
r än
gen ie
funktion ieren</w>
er -
da cht</w>
a k</w>
Tei l
mo ved</w>
av ail
Ri chtung</w>
J ohn</w>
Europ e</w>
A ut
vis ion</w>
sp richt</w>
schwieri g</w>
le t
ge h
gab en</w>
erklär en</w>
b om
at ur</w>
an fangen</w>
ac cess</w>
Pf lan
M ich
mo del
l a</w>
k ra
ge worden</w>
car s</w>
be zah
T it
S or
über zeu
z ellen</w>
sch rieb</w>
nei gh
ig es</w>
ho od</w>
des halb</w>
cent er</w>
Wahr heit</w>
pl an</w>
k id</w>
W ä
Stu denten</w>
K no
ver ur
u tion
issu e</w>
en th
di ed</w>
dar aus</w>
d rei
beginn t</w>
be kommt</w>
D am
st ung</w>
st ie
re f
mö chten</w>
mit einander</w>
kon zentri
k ri
C an</w>
unter stütz
ter na
m ung</w>
li g</w>
in te
S om
S au
N ach</w>
Ge wal
D r.</w>
on y</w>
nach dem</w>
her vor
ge fühl</w>
ex am
an ts</w>
an aly
Kran ken
K ünst
Jahrhunder t</w>
ul arly</w>
dig keit</w>
An zahl</w>
Al le</w>
ver bess
sch ul
erfol grei
absol utely</w>
Haup t
situ ation</w>
s etzt</w>
pl at
de ta
b ru
K amp
In du
Ä r
z in</w>
verwen det</w>
r um</w>
pl ötzlich</w>
is ch
gef ähr
f y</w>
ar m</w>
T atsächlich</w>
über r
w u
milli ons</w>
ig nor
ge zeigt</w>
desig ned</w>
T u
Schri tt</w>
S ome
R ich
H u
Dem ok
0 ern</w>
gew al
füh le</w>
fl uss</w>
f ör
el ek
ach ie
Su per
ung er</w>
se a</w>
la w</w>
foc us</w>
dy nam
W il
Per son
M ei
Am erikan
y es</w>
tal ked</w>
so on</w>
pati ent</w>
k rei
etz en</w>
del i
dan ach</w>
Ih rem</w>
Gemein schaft</w>
sho wed</w>
o x
mov ement</w>
ex pres
ben ef
be wer
R ea
1 ,
us h
uri ty</w>
produc t</w>
l ungen</w>
i p
f ru
extre m
besch äf
agi eren</w>
S pa
S outh</w>
D ro
wichti g
un e</w>
star k</w>
s mo
s at
Tei le</w>
Situ ation</w>
Ein ige</w>
Da vid</w>
verb unden</w>
au r
D et
th ank</w>
schle cht</w>
relation ship</w>
in i
experim ent</w>
en s
an g</w>
a ds</w>
Is l
Archit ek
year- old</w>
wo od</w>
sy m
supp ort</w>
si ve</w>
m ut
kno ws</w>
dar k</w>
ck ing</w>
ck et</w>
bekan nt</w>
H äl
D or
sol ve</w>
se em</w>
k t
inn er</w>
avail able</w>
Stim me</w>
Sch we
R el
C ity</w>
Aufgab e</w>
sol ution</w>
ori th
k u
incredi bly</w>
hal t</w>
genan nt</w>
eg al</w>
aus sehen</w>
ar ds</w>
Mu ster</w>
sel n</w>
s si
per fe
n on-
lo ss</w>
inst itu
gr ü
al low</w>
W ie
Regi er
we ch
m om
m ing</w>
g orith
b ul
Techni k</w>
Pl atz</w>
sha pe</w>
in a</w>
he ad
gi g</w>
ge ment</w>
beg in</w>
a cht</w>
Um gebung</w>
Sch ü
Ihr er</w>
Ei gen
D ru
ü cke</w>
wri ting</w>
ver wand
rec ently</w>
ma in</w>
lei cht</w>
ist s</w>
develop ing</w>
ab ri
Mar s</w>
Des halb</w>
Ch ri
19 7
ur es</w>
gu ten</w>
f ro
en ter
den kt</w>
T y
th es
kontro lli
kom p
ger e
f ä
c is
Ver einig
I ra
Bes ch
son st</w>
bil den</w>
ben utzt</w>
K ü
t zu
pp e</w>
fe ar</w>
entfer nt</w>
d ou
comp assi
chan ce</w>
ar ten</w>
Na cht</w>
Bil dung</w>
zei tig</w>
zeh n</w>
st -
sh ed</w>
on to</w>
ho ffe</w>
fa vor
de gre
de ep</w>
bloo d</w>
ag ed</w>
Vor stellung</w>
Bedeut ung</w>
resour ces</w>
ma chten</w>
m ä
innov ation</w>
gespro chen</w>
dimen sion
ck ed</w>
nach zu
nach denken</w>
ev ent
b site</w>
a z
F rie
Am erika</w>
niem als</w>
net work</w>
compu ters</w>
cl ass</w>
St and
Medi kam
M il
Afghan istan</w>
ter m</w>
st ers</w>
m ilit
industr y</w>
Ma themati
Gener ation</w>
vo ice</w>
sel be</w>
pic tures</w>
mo dern</w>
leg al</w>
h äu
bab y</w>
Chin ese</w>
AI D
wor th</w>
ver rück
ti e
t ungen</w>
suc cess
st opp
maj or</w>
li n</w>
R olle</w>
Kli ma
Gesund heit</w>
Fre und</w>
z y</w>
tin y</w>
op tim
off ensicht
li ved</w>
big ger</w>
auf ge
Te am</w>
y ond</w>
sto ff
bei de</w>
be comes</w>
Prin zi
th in</w>
pe ti
p utting</w>
de ed</w>
Veränder ung</w>
M ex
K raft</w>
G ei
tor en</w>
ris k</w>
k raft</w>
h our</w>
connec ted</w>
ch ern</w>
Häl fte</w>
F e
w all</w>
sour ce</w>
p ol
l ess
de ep
al te</w>
Gr öße</w>
z ept</w>
so ftware</w>
me et</w>
issu es</w>
imp act</w>
i ally</w>
gen ce</w>
g -
N um
L ook</w>
Herausforder ung</w>
Erfol g</w>
ti ef
kl einer</w>
errei cht</w>
develop ment</w>
cou ra
au ft</w>
M c
z er</w>
ver öffent
sto od</w>
s end</w>
pec ially</w>
jeman den</w>
fer ence</w>
es pecially</w>
Ph ysi
Masch ine</w>
Is ra
H ey</w>
H aus
F ace
wis h</w>
ver di
sur pris
perf ect</w>
hi stor
gesch rieben</w>
fo o
expla in</w>
ein zu
de ten</w>
brea k</w>
Inst itu
y a</w>
w ell
tre at
ther ap
stre et</w>
st ern</w>
s ent</w>
reas ons</w>
ken n
bli ck</w>
Wä hrend</w>
O f</w>
Kin der
F ak
tzu tage</w>
nor mal
en ded</w>
eff ect</w>
dig ital</w>
con v
con struc
col or</w>
be ste</w>
L abor</w>
K i
E ff
us si
se ar
i ze</w>
exp lo
evi dence</w>
el ess</w>
d aten</w>
ck er</w>
S er
P al
Al l
z ation</w>
ta g</w>
sozi ale</w>
so fort</w>
n ü
n ar
lin es</w>
qu ality</w>
invol ved</w>
gu ess</w>
ess or</w>
ess es</w>
de cken</w>
Z eu
S to
Berei ch</w>
ütz en</w>
pl ant</w>
mes sage</w>
la g</w>
gen e</w>
e k</w>
di stri
be kam</w>
Stu die</w>
Mein ung</w>
stän d
st rong</w>
sig ni
relig i
le y</w>
grou ps</w>
W ör
Stra ße</w>
R est</w>
K il
F eu
schni tt
or ies</w>
fin de</w>
essi on
en der</w>
dri ve</w>
ber t</w>
ac tive</w>
a gen</w>
S h
Fo to</w>
B y</w>
verl oren</w>
sa hen</w>
pro mis
ne ga
komple x
ik o</w>
h äre</w>
ge kommen</w>
be yond</w>
b acter
Wach st
Europ a</w>
1 3</w>
sa ve</w>
it ze</w>
O p
Fäh igkeiten</w>
tru th</w>
r ules</w>
den ly</w>
Z ent
Mit te</w>
A pp
wen den</w>
ing ton</w>
f ern</w>
bes u
Fir ma</w>
un kte</w>
tiv ität</w>
stimm t</w>
neu ro
in ation</w>
er k
eff ici
de ad</w>
da chten</w>
ar beit</w>
Ar m
to wards</w>
simil ar</w>
robo t</w>
mo un
lin ks</w>
fü r
do or</w>
1 7</w>
te ach</w>
spra ch</w>
ro r</w>
nec ess
komple tt</w>
jen igen</w>
interessi ert</w>
hab t</w>
gir ls</w>
de vice</w>
Sch auen</w>
voll er</w>
tz dem</w>
or ity</w>
n ein</w>
mm et
hund red</w>
ge arbeitet</w>
W here</w>
Fir st</w>
B en
z en
tor y</w>
pres ent</w>
m äch
h aus</w>
fre e
e ma
de pres
con su
Sicher heit</w>
B akter
w esen</w>
stell ten</w>
sever al</w>
pp en</w>
orig in
geschi eht</w>
er for
bre chen</w>
V on</w>
Me er
Gewal t</w>
welt weit</w>
lo c
kom me</w>
hi elt</w>
gegen über</w>
ek ü
A h
ün f
läu ft</w>
li mit
gh ter</w>
da her</w>
cho ice</w>
carb on</w>
W ert</w>
Son ne</w>
N ur</w>
Kar te</w>
w n
li ert</w>
la b</w>
zer stör
ro ad</w>
geb oren</w>
c e
Z i
St re
Ma ybe</w>
Be wus
wal king</w>
speci al</w>
op s</w>
gra du
form ed</w>
einfa che</w>
schn eller</w>
s it</w>
re st
partic ularly</w>
ga in</w>
fas zin
f assen</w>
er kan
en nen</w>
d or
bewe gt</w>
all ein</w>
ac y</w>
Vereinig ten</w>
Rei se</w>
Compu ter
A si
1 5
ver sion</w>
ra is
pro per
off ice</w>
k il
gesam te</w>
g as</w>
d on
and a</w>
Sch i
H inter
Forsch ung</w>
schlie ßen</w>
mis sion</w>
lo k
li sten</w>
ey e</w>
d in
be finden</w>
W o</w>
Re alität</w>
- B
tr auen</w>
the ma
größ er</w>
grund le
g res
g ames</w>
ensi ve</w>
ef ul
absol ut</w>
Pro f
Ge or
D ing</w>
nen nt</w>
min ute</w>
herauszu finden</w>
fra ge</w>
c o</w>
bas ic</w>
Vor trag</w>
G lau
F äl
Entschei dungen</w>
z te</w>
vor her
so unds</w>
scienti fic</w>
scho ols</w>
potenti al</w>
e di
atur es</w>
In formation</w>
teach ers</w>
susta in
p assen</w>
obvi ously</w>
h it</w>
g lichen</w>
f em
est s</w>
any body</w>
an ge</w>
activ ity</w>
T ro
Sel bst</w>
Krank heit</w>
stat t
materi als</w>
län ger</w>
lie ßen</w>
gre at
g nis</w>
conf lic
appro ach</w>
ad ing</w>
ab ly</w>
Zah len</w>
W est</w>
Son nen
Na tional</w>
y ers</w>
sol ar</w>
sch aut</w>
es c
bes it
viol ence</w>
v al</w>
neu es</w>
mon th</w>
w ind</w>
um p</w>
ti k
te x
star ts</w>
sitz en</w>
shi ps</w>
rei b
p ect</w>
medic al</w>
gen des</w>
ch i
bes ser
archit ec
V iel
T re
T im
Stru ktur</w>
Ober fläche</w>
Geb ur
Ergeb nis</w>
sec urity</w>
rie f</w>
be gan
Kom mun
Jap an</w>
ob ject</w>
high -
her um
dig it
co de</w>
certain ly</w>
S an</w>
Mar kt</w>
Bezieh ung</w>
An der
tot ally</w>
rat ie</w>
pro cess
inter est</w>
führ te</w>
V ol
Städ te</w>
Nor th</w>
B al
to wn</w>
s ätz
progra mm
ph en
gel an
for man
em ber</w>
ein ge
an statt</w>
T ur
är en</w>
ähn lich</w>
tot al</w>
r ich</w>
olo gen</w>
began nen</w>
K er
Bewus st
Auf merk
wichti ger</w>
rec ei
re ach</w>
prof ession
plan ts</w>
Tel ef
wan ts</w>
verur sa
re volution</w>
k ei
groß er</w>
exam ples</w>
es o</w>
big gest</w>
Au str
to -
photogra ph
c ause</w>
T at</w>
ti ves</w>
sp an
sho wing</w>
prin ci
m ass</w>
lie ß</w>
lar gest</w>
l ern</w>
Uni versity</w>
T od</w>
Geschä ft
Ges icht</w>
Beh and
Aus wirk
z el
spe ed</w>
our c
no tice</w>
j unge</w>
f r
f all
bil dung</w>
E very</w>
tro ffen</w>
sp er
si tion</w>
n ine</w>
li st</w>
komp liz
fur ther</w>
en cy</w>
char ac
c ris
c amera</w>
a des</w>
Schul en</w>
AID S</w>
se par
p t</w>
li sten
le ad</w>
in tro
h l</w>
chti g</w>
Jahr zeh
Hoff nung</w>
E is
A d
2 4</w>
t le</w>
hi g</w>
han g</w>
h inter
ge dacht</w>
c lu
an tly</w>
ali zed</w>
Re geln</w>
2 1</w>
emp lo
dom in
dec is
compassi on</w>
bi le</w>
an sehen</w>
ac coun
P sych
P au
Face book</w>
D el
zu erst</w>
wichti ge</w>
wi der
st ic
om en
m es</w>
hal te</w>
e er</w>
arbei tete</w>
an z</w>
am ong</w>
H ir
Entwick lungs
Bü cher</w>
z w
umin dest</w>
ti n</w>
stor e</w>
no body</w>
m ist
j obs</w>
g h</w>
fäl lt</w>
every where</w>
er le
bestimm t</w>
ag ing</w>
a ffen</w>
Sch u
Ch em
tem per
t as
stud ent</w>
st ay</w>
pro jects</w>
mem ory</w>
meas ure</w>
em and</w>
bede ut
ati v</w>
Ko sten</w>
Feh ler</w>
4 00</w>
suc cess</w>
sozi alen</w>
s al
k ür
gemein sam</w>
fanta st
devel op</w>
ci es</w>
bestimm ten</w>
N ig
H imm
zeich net</w>
su cht</w>
rec or
peri od</w>
pat tern</w>
passi erte</w>
nam ed</w>
i al</w>
for men</w>
extrem ely</w>
er ed</w>
Woh l
R ess
N er
Mit gefühl</w>
M y
Glei ch
C ha
Au ch</w>
trei ben</w>
tre es</w>
sch reck
lang sam</w>
kl ein
fol low</w>
eful ly</w>
comp lic
S A</w>
Af ter</w>
ver fü
tiv ely</w>
par tici
for d</w>
exc iting</w>
de mon
T V</w>
Kontro lle</w>
H ol
Al ter</w>
vis i
son g</w>
pra kti
model s</w>
mean ing</w>
gener al</w>
gen en</w>
e kt</w>
a th
En gl
schie den</w>
o w
jour ney</w>
gleich zeitig</w>
er mög
cl ass
Er d
D ri
19 6
versu chte</w>
su n</w>
ne te</w>
lea ders</w>
g alax
fir e</w>
er wäh
da tion</w>
c lear
b ank</w>
M eter</w>
G alax
Bevölk erung</w>
wi cht</w>
vor her</w>
sa fe</w>
p ac
oh n
n a</w>
com par
col le
Materi al</w>
Aufmerk samkeit</w>
Arbei t
u red</w>
ogra ph
inspi ri
happ iness</w>
blei bt</w>
beobach ten</w>
a w
W ür
Nig eri
st ron
res ults</w>
per spec
ad d</w>
Wh o</w>
Par t
J ob</w>
Fort schri
sud denly</w>
pa ge</w>
fortun ately</w>
wat ching</w>
vel s</w>
teach er</w>
pic k</w>
k ol
g yp
fo ot</w>
es sion</w>
einzel ne</w>
bo y</w>
Sch ön
Mol ekü
Grupp en</w>
E ast</w>
Au gen
tr a</w>
s ou
mor al</w>
g ent</w>
ear li
do w</w>
am i</w>
The orie</w>
N A
Mon aten</w>
Ho ch
vil lage</w>
tig keit</w>
po ver
nu clear</w>
li es</w>
favor ite</w>
dan ger
cre ative</w>
cal cul
ag ra
ad d
W ar</w>
Or te</w>
D ok
äu men</w>
scre en</w>
s car
p ing</w>
massi ve</w>
gri ff</w>
gre w</w>
dr ücken</w>
cra zy</w>
br an
W ash
S ei
Dat en
ü b
signi fic
richti ge</w>
produ zieren</w>
f ine</w>
exp ect</w>
event ually</w>
ch ter
an ks</w>
M ag
Innov ation</w>
E volution</w>
E ven</w>
Arbei ts
ver standen</w>
r aten</w>
pr ü
mov ie</w>
ma thema
in flu
for est</w>
fa ster</w>
dar f</w>
b ah
P reis</w>
Ein es</w>
versu che</w>
u tions</w>
sch w
man i
jo y</w>
an schauen</w>
w on
sk in</w>
individu als</w>
gr enz
fin ding</w>
ab les</w>
Z er
Um welt</w>
S ig
Demok ratie</w>
wor l
se x</w>
s is</w>
produc ts</w>
oll en</w>
ol der</w>
m ed</w>
m ale</w>
kämp fen</w>
kom m
k ar
ger y</w>
coll abor
ad a</w>
St elle</w>
H ö
D ah
ver lassen</w>
smar t</w>
schla gen</w>
samm eln</w>
richti gen</w>
priv ate</w>
offensicht lich</w>
kan nst</w>
groß es</w>
der t</w>
democra cy</w>
thous and</w>
some where</w>
regi on</w>
k tionen</w>
im medi
gh tly</w>
ge gangen</w>
cul tural</w>
Mo st</w>
y le</w>
typ es</w>
tion s
t wen
t an</w>
si onen</w>
secon ds</w>
sec re
respon se</w>
poin ts</w>
gew innen</w>
erzäh lt</w>
eh ow</w>
dis c
da m</w>
contin ue</w>
bra ins</w>
O per
Kön nen</w>
Geb iet</w>
wa it</w>
t ells</w>
stru ktur</w>
plan e</w>
inter national</w>
hör te</w>
er in</w>
di ge</w>
ber ü
ap e</w>
Wash ington</w>
Unter neh
M I
I mp
phi c</w>
on e-
de ter
as en</w>
a da
Kun st
K ri
wi fe</w>
sor ts</w>
sk y</w>
rei ben</w>
ep s</w>
dru g</w>
c t</w>
F un
Experim ent</w>
Ein fluss</w>
D re
1 .
z ens</w>
ver sor
tra ining</w>
sp ac
sch ir
s un
rei chen</w>
olog ical</w>
m ous</w>
fundament al</w>
essenti ally</w>
d eine</w>
buil dings</w>
an del</w>
an a</w>
al th</w>
Ver gan
Rich ard</w>
P il
Gr enzen</w>
und ed</w>
sho wn</w>
sho t</w>
re ci
pover ty</w>
in deed</w>
em en</w>
dre am</w>
di e
di agno
dan ke</w>
contin u
ci ti
bri dge</w>
Wir tschaft
Se e</w>
Medi en</w>
H um
Amerikan er</w>
ver lieren</w>
sup posed</w>
sel bst
ox y
ob jects</w>
n ö
m me</w>
ken nt</w>
ish ed</w>
im possible</w>
ihr es</w>
expl or
dies el
allo wed</w>
Or ten</w>
Kon zept</w>
z umindest</w>
wus sten</w>
tau ght</w>
st ly</w>
om eter</w>
medi zin
inter nation
g ol
co ver</w>
Spa ß</w>
2 000</w>
wi l
vol le</w>
verbess ern</w>
ty pic
tre e</w>
spre ad</w>
piec es</w>
me ant</w>
lar ger</w>
irgend wo</w>
hig her</w>
forman ce</w>
erlau bt</w>
bess ere</w>
aus sieht</w>
al ing</w>
S eiten</w>
P an
Fre u
Eben e</w>
Di en
0 er</w>
wor se</w>
st am
seri es</w>
s we
ro le</w>
qu o
her r
comm unities</w>
c les</w>
auß er</w>
ar ed</w>
an al
Wah l</w>
Ta gen</w>
zi g</w>
z ul
vis ual</w>
vi c
n äh
hin aus</w>
hand elt</w>
ab zu
Engl and</w>
A -
produc tion</w>
ing ing</w>
fre i</w>
er ie</w>
con text</w>
colle ag
ar ch
Universi tät</w>
O ff
Bli ck</w>
üh ne</w>
win den</w>
ver gessen</w>
tradi tional</w>
st eu
ri c</w>
pat ter
organiz ation</w>
fel d</w>
en se</w>
auf re
at t</w>
Spezi es</w>
Nach richt</w>
In vest
A re</w>
zeich nen</w>
thr ough
stec ken</w>
sex u
ne w
go al</w>
ge k
com peti
allo ws</w>
We b</w>
Progra mm</w>
P ak
Or d
Kommun ik
E ig
ul p
ther e
nachzu denken</w>
ing u
dru gs</w>
dr ück
condi tions</w>
cas es</w>
br auch</w>
a tional</w>
S ohn</w>
Mus ik
Krank heiten</w>
In tel
Beisp iele</w>
y s
uni vers
r ein
min ds</w>
k ill</w>
d as
b unch</w>
ari ly</w>
Zu gang</w>
Person en</w>
Ma ß
L os</w>
Gen au</w>
w ah
read ing</w>
kill ed</w>
famili es</w>
eff ek
Wh ich</w>
T em
wor fen</w>
vi rus</w>
stec kt</w>
sta tist
schni tt</w>
rel ev
it äten</w>
heu tzutage</w>
füh lt</w>
electri city</w>
complic ated</w>
bl ind</w>
Z u</w>
Vergan genheit</w>
Künst ler</w>
Kon fli
G ut</w>
C an
4 5</w>
ü r</w>
wäh len</w>
star s</w>
spe e
sen s
nen ne</w>
lo wer</w>
kl ein</w>
fol gt</w>
Afri can</w>
tradi tion
success ful</w>
prot ect</w>
phen omen
perspec tive</w>
p es</w>
nie dri
hosp ital</w>
gu e</w>
gesam ten</w>
extra ordinary</w>
cris is</w>
c lin
c la
c am
Wirk lichkeit</w>
N utz
Mensch heit</w>
Er inn
Dah er</w>
wir tschaft</w>
um ents</w>
tri eben</w>
tra f</w>
le u
ini ti
exp ensive</w>
dre ht</w>
cho ose</w>
ast rop
al t
al ist</w>
S econ
Mus li
K ä
us ually</w>
ter ror
t wi
ständ nis</w>
sch ung</w>
medic ine</w>
connec t</w>
Wor te</w>
Sch wi
Sch la
Rel ig
Poli tik</w>
Lin ie</w>
Ger ät</w>
Ent deck
tr ust</w>
tol l</w>
som ehow</w>
pe l</w>
li ed</w>
l ten</w>
in come</w>
gra ph
f ight</w>
cht ungen</w>
amerikan ischen</w>
abhän gig</w>
Th ose</w>
P or
Kö ni
CO 2</w>
3 5</w>
th ro
sol chen</w>
rup tion</w>
re mark
prä senti
pre v
pf lan
mä ß
k ept</w>
gesch ehen</w>
exc ited</w>
entschei den</w>
ent ation</w>
do wn
ck y</w>
al -
S ci
Nach richten</w>
Ir an</w>
Gen e</w>
vi er
up on</w>
t wo
t ter
t aten</w>
ser vice</w>
n on
man che</w>
j ungen</w>
ha b</w>
f el</w>
er o
dep end
b ing</w>
abo ve</w>
a de
W ol
Ress ourc
Prä si
C or
B lu
wis e</w>
wer t
we ver</w>
v eh
tro tzdem</w>
ti ker</w>
incre ase</w>
bestimm te</w>
bacter ia</w>
ali ve</w>
To day</w>
Schü ler</w>
Americ ans</w>
win digkeit</w>
wei ght</w>
to ol</w>
t emp
erzeu gen</w>
einzel nen</w>
dru ck
cri tical</w>
com bin
T ier</w>
Sp an
Kap it
wri tten</w>
wen dung</w>
visi ble</w>
treat ment</w>
thre e-
oper ation</w>
neur ons</w>
in si
h im
ep tion</w>
ent decken</w>
architec ture</w>
ar ing</w>
Produ kt</w>
Kör per
Famili en</w>
Ein zel
D u
str eng
provi de</w>
pe ace</w>
mach ines</w>
fam ous</w>
er hö
ei m
doc tor</w>
bo dies</w>
ation s
Sek unden</w>
Li ke</w>
Ge fän
Bet ra
ver änder
trä gt</w>
tr ou
stu dies</w>
sm aller</w>
si ty</w>
m essen</w>
lei sten</w>
k rank
i dent</w>
end lich</w>
cont ent</w>
b au</w>
ari a</w>
ab el</w>
Schl üs
Gel e
Ergeb nisse</w>
y eah</w>
un ge
tru ly</w>
rei ch</w>
n ä
man u
inclu ding</w>
hil ft</w>
gen es</w>
g g
eff ective</w>
bein gs</w>
b la
any where</w>
Prinzi p</w>
Mon at</w>
Metho de</w>
I mag
G est
transp or
te chn
spi elt</w>
sp ir
l at
k ünst
k aum</w>
hy th
et t</w>
al ter</w>
Wit h</w>
Wahr schein
V ort
T yp
S ha
P at
Medi zin</w>
stie g</w>
ph ilosop
patter ns</w>
ho t</w>
heal thy</w>
ha ft</w>
biolog y</w>
Syst eme</w>
Mit tel
Kol legen</w>
öff nen</w>
sto ffe</w>
seri ous</w>
p fen</w>
li gh
ho ff
fal t</w>
d opp
b ieten</w>
Ty p</w>
Tim es</w>
So ftware</w>
Regier ungen</w>
Nach bar
Dor f</w>
Ar ti
wa ste</w>
strat eg
so dass</w>
ref lec
rec ord</w>
ple ase</w>
physic s</w>
p asst</w>
ma themati
m als</w>
gel ö
conver sation</w>
bl in
Str at
Pflan zen</w>
veh ic
stei gen</w>
st om
sch lä
milit ary</w>
him self</w>
h ur
V o
U hr</w>
Mus eum</w>
Mar k
A tom
tou ch</w>
speci fic</w>
ri ghts</w>
r and
ge fragt</w>
f low</w>
ep ing</w>
ent ing</w>
auf grund</w>
any more</w>
ac tual</w>
S at
I m
B ill</w>
Auswirk ungen</w>
A no
zei gte</w>
taus ende</w>
ran k</w>
ne ben</w>
l y
f la
ex ist</w>
dri ving</w>
Um welt
T wi
Studi en</w>
P res
Koh len
J ung
Har v
Fir men</w>
war ten</w>
sk ills</w>
schic ken</w>
ries ige</w>
re chts</w>
m ein
in str
ich ts</w>
gre ater</w>
fas cin
fac es</w>
fa ir
er a</w>
di versity</w>
chall eng
ativ ity</w>
arbei te</w>
ar tic
ac ci
T ier
Sy m
S icht</w>
Arm ut</w>
An y
äu ß
Ö l</w>
sei ts</w>
sch es</w>
ri ch
recogni ze</w>
in fra
f res
entdeck t</w>
ent schieden</w>
decis ions</w>
as i
H al
Ch ance</w>
A mei
ü ben</w>
y st
tra in</w>
tei le</w>
spr ün
li m
ing ungen</w>
ici al</w>
großarti ge</w>
gen der</w>
ec ting</w>
da durch</w>
Ver antwor
Ra di
Her z</w>
Fo tos</w>
Ein stein</w>
Bewusst sein</w>
ä te</w>
un möglich</w>
tre at</w>
sen si
s ü
i le
d ance</w>
conc ept</w>
col lege</w>
Sch w
Pro t
In genie
H ü
Ano ther</w>
zi eht</w>
so c
her stellen</w>
he ben</w>
hal ten
at ten</w>
W ik
Sin ne</w>
Ord nung</w>
Mathemati k</w>
L ö
übri gens</w>
zu fäl
wi de</w>
verbin den</w>
st ol
n ur
le -
kul tur
in -
h ole</w>
Neu ro
Himm el</w>
H om
wä l
wa iting</w>
unter suchen</w>
t ent</w>
so wohl</w>
pro to
pri ce</w>
näh er</w>
le gs</w>
kom men
in tu
heraus finden</w>
go tten</w>
fer tig</w>
erzäh lte</w>
en des</w>
chn ungen</w>
c ru
b lich</w>
Au di
two -
r an</w>
prac tice</w>
per formance</w>
normal erweise</w>
kü mm
ier end</w>
hei t
gra de</w>
ermög licht</w>
con tri
Mor gen</w>
Mensch en
Hän de</w>
ür f
zwei ten</w>
well -
robo ts</w>
lo ved</w>
geb il
fanta stic</w>
famili ar</w>
f ill
etz e</w>
earli er</w>
clear ly</w>
T ie
MI T</w>
F i
B lo
1 9</w>
ta ins</w>
schön e</w>
scha fft</w>
s us
rä fte</w>
hunder t</w>
engine ering</w>
d un
cap ac
beau ty</w>
as chen</w>
ac tions</w>
a ware</w>
Sch mer
S ep
Pap ier</w>
Lei den
G ri
C hi
ur ban</w>
tu de</w>
through out</w>
os au
o ds</w>
mo d
außer halb</w>
Wie der
T aus
Ressourc en</w>
L er
For men</w>
Bi o
B it
us sion</w>
ul l</w>
re tten</w>
pa th
ni en</w>
listen ing</w>
k ör
fri e
e ur
con cer
chti gkeit</w>
be coming</w>
ar ri
af ter
L it
Kom ple
H öh
1 50</w>
z immer</w>
wir ken</w>
we ap
wal ked</w>
v ely</w>
ut z</w>
sol utions</w>
ph ones</w>
p il
p al
ie ties</w>
g n
f our
dis chen</w>
die jenigen</w>
curr ent</w>
al terna
al d</w>
adv an
Wachst um</w>
Twi tter</w>
Dam it</w>
D ec
Be gin
ul ate</w>
th ern</w>
s an
r ing</w>
poli ce</w>
mitt eln</w>
m men</w>
m asch
do g</w>
co sts</w>
be findet</w>
Zeu g</w>
S al
N ä
Isra el</w>
Er fin
Au to
won der</w>
togra f
there fore</w>
spre che</w>
s th
ond ere</w>
ma tion</w>
interessan te</w>
glob alen</w>
ges ell
extre m</w>
est er
einfa chen</w>
eas es</w>
direc tion</w>
con ven
cht es</w>
ber e
at mosp
Geh eim
Er wachsen
Bakter ien</w>
un dation</w>
t un
su e</w>
sh e
se em
pr en
ple as
pa in</w>
mat h</w>
land sc
ide m
func tion</w>
em er
d lichen</w>
ber üh
amer as</w>
Th er
Sep tem
B ühne</w>
w ün
re -
pf er</w>
ous ness</w>
no tic
li ber
l ap
ing -
in es
great est</w>
est er</w>
d i</w>
cht -
c ele
ab stra
Ver fü
Sch war
P ra
Oz ean</w>
H aben</w>
Energi e
Ber u
Architek tur</w>
A ma
vir tu
ti ger</w>
te x</w>
s low</w>
s ell</w>
rel ated</w>
k op
k el
inv ented</w>
intelli gence</w>
gro s
fi g</w>
dre hen</w>
c tion</w>
c en
as che</w>
a gen
Sch ool</w>
Organis ation</w>
K a
H or
Fl ü
Begin n</w>
wel cher</w>
tri e
so ft</w>
pul l</w>
il t</w>
gesch lossen</w>
exc ept</w>
en ced</w>
einzi gen</w>
b te</w>
b at</w>
Y ou
So zi
P ol
Num mer</w>
Far be</w>
zei t
ur ch</w>
th rop
r ely</w>
mor al
free dom</w>
dra w</w>
ac ks</w>
Ver such</w>
Septem ber</w>
Re cht</w>
Rau m
Obje kt</w>
Nahr ung</w>
Intel li
G lob
G ar
A le
we bsite</w>
v an
tra vel</w>
steh e</w>
squ are</w>
sch ützen</w>
r und</w>
r aus</w>
poli cy</w>
m ers</w>
ler nte</w>
hin zu
em erg
der ed</w>
danger ous</w>
contro ll
consi der</w>
betra chtet</w>
N ame</w>
Inter esse</w>
Gehir n
öffent lichen</w>
t at
st on</w>
r au
ologi sts</w>
k auf
institu tions</w>
gesch affen</w>
fl ying</w>
erfolgrei ch</w>
emo tional</w>
durch schnitt
da te</w>
ac ting</w>
a dem
Bab y</w>
Arti kel</w>
Ar ab
teach ing</w>
sub ject</w>
pres s</w>
fri kan
for th</w>
flo or</w>
f äh
f it</w>
depend ent</w>
Meer es
Imag ine</w>
Grün de</w>
F en
E is</w>
stell ungen</w>
st ro
st range</w>
sch te</w>
n ütz
ma in
eff izi
cli m
ar en</w>
F er
wor k
vi li
vari ous</w>
under stood</w>
stän de</w>
sp iel</w>
sch u
re duc
m ü
form ing</w>
e gi
comple te</w>
bab ies</w>
ah ead</w>
a ke</w>
Y our</w>
In se
E rei
C aliforni
Be zug</w>
Ar m</w>
ser vices</w>
ne l</w>
ge he</w>
evol ution
ess ed</w>
dri tte</w>
connec tion</w>
conflic t</w>
ch s
alis m</w>
Stra ßen</w>
O x
Ges etz</w>
Frei heit</w>
Ein er</w>
Bezieh ungen</w>
Behand lung</w>
v it
sur ro
sear ch</w>
re ach
pedi a</w>
le vels</w>
hand eln</w>
en coura
doc tors</w>
Zeit punkt</w>
Nat ur
Land es</w>
K al
Geor ge</w>
2 -
Ä n
wer k</w>
sequ ence</w>
schla g</w>
neigh bor
mo tiv
mehr ere</w>
ma ßen</w>
it ution</w>
ig h
füh lte</w>
follo wing</w>
fig h
f lie
et es</w>
eben so</w>
d ollar</w>
Z wei</w>
Man chmal</w>
Lös ungen</w>
Lie bl
Li fe</w>
K rei
J ungen</w>
Eu ro
z ut
wei s</w>
st ig</w>
r at</w>
pro gress</w>
pa id</w>
me eting</w>
her zustellen</w>
gesch aff
fä hig</w>
fa ir</w>
de u
chn ung</w>
be es</w>
att le</w>
at ory</w>
al gorith
ak tu
Ne ur
In str
Bl ut
Be weg
remark able</w>
rei ch
qu ar
obvi ous</w>
le gt</w>
k ap
inst ance</w>
ge troffen</w>
ent weder</w>
em is
dis appe
direc tly</w>
c old</w>
ativ en</w>
al tet</w>
St unde</w>
M ach
. B</w>
verk aufen</w>
val ues</w>
tel ev
tei lung</w>
t al</w>
st eri
sp on
sli de</w>
schätz en</w>
schn ei
p ath</w>
m eter</w>
li ghts</w>
hin ein</w>
fu hr</w>
frü her</w>
ent re
car eer</w>
Entschei dung</w>
ver hin
v at
s at</w>
ri es</w>
ri er</w>
or e
mo bile</w>
le k
k as</w>
iz ed</w>
human ity</w>
erwar ten</w>
er fahren</w>
ell es</w>
ei li
dest o</w>
deci de</w>
dec ision</w>
W ow</w>
W and</w>
Nigeri a</w>
Mit tel</w>
Kon fer
G P
Chri st
Ch ic
B rü
Ar zt</w>
Ander son</w>
9 9</w>
sp ür
s eite</w>
ra ise</w>
o ts</w>
n utz
kei ts
k at
immedi ately</w>
i red</w>
hr t</w>
h ung</w>
großarti g</w>
ex tra</w>
er leben</w>
dec ade</w>
das selbe</w>
ber u
Wik i
Ver ständnis</w>
O ri
Milli on</w>
M är
Jahrhunder ts</w>
Fin anz
zus agen</w>
trac t</w>
st ar</w>
res ist
pla yed</w>
origin al</w>
or ts</w>
na p
l ie</w>
kür z
jeman dem</w>
it i</w>
g ste</w>
ev ent</w>
erinn ere</w>
d um
aur ant</w>
Tei len</w>
K .</w>
Gre at</w>
Erfahr ungen</w>
Er kenn
6 00</w>
än de</w>
zer o</w>
will ing</w>
tiv ity</w>
stand ard</w>
possi bly</w>
neh me</w>
ken ne</w>
inter pre
heu tigen</w>
h a</w>
g rupp
et h</w>
elek tr
eben falls</w>
da d</w>
bri lli
be haup
al though</w>
Z eiten</w>
K amera</w>
J ames</w>
G al
Californi a</w>
vi du
us eful</w>
pla stic</w>
ne un</w>
i Ph
govern ments</w>
fän gt</w>
fin al</w>
bes ondere</w>
ar t
ag ri
J unge</w>
I denti
Ö ff
wi d
ver antwor
st ation</w>
st ad
ma tic</w>
l ands</w>
k turen</w>
it z
hei m
fu el</w>
fo ssi
f ähr
Veränder ungen</w>
Li ste</w>
Indi vidu
In fra
Det a
An ge
19 5
tra ff
tra ck</w>
pa ir</w>
fre qu
for ces</w>
fe ed</w>
et c</w>
arbei ter</w>
We ge</w>
W esen</w>
T wo</w>
Harv ard</w>
Gei st</w>
Gehir ns</w>
E -
Char les</w>
Bür ger
w and</w>
terri ble</w>
sustain able</w>
schl uss</w>
sc ri
re ch
p un
li fe
hö ch
hol t</w>
gu ter</w>
environ mental</w>
ehr lich</w>
e cht</w>
cu ri
capac ity</w>
as soci
anc ed</w>
ali zation</w>
ab ge
a id</w>
Wor ten</w>
Woh n
P unkte</w>
Oz e
Masch inen</w>
J an
Eigen schaften</w>
1 7
wen ige</w>
unterstütz en</w>
spea king</w>
s wi
partici p
n -
mp tion</w>
met ap
l ehr
gew äh
g utes</w>
ak zep
W hi
V -
S im
S ie
Produ kte</w>
M om
Li cht
L auf
Fran cis
D ep
z ine</w>
verrück t</w>
scha ff
sch ü
poli tics</w>
p ass</w>
ne ar</w>
n ut
mark ets</w>
j ene</w>
ec k
d ein</w>
ag ree</w>
St rom</w>
R est
M S</w>
Er n
E t
B oo
An ti
Ama z
Ö l
v y</w>
unterschied liche</w>
unglaub liche</w>
telev ision</w>
sli ghtly</w>
men d
leb te</w>
k einer</w>
geschaff t</w>
gen utzt</w>
fäl le</w>
d get</w>
c au
West ern</w>
Un ser</w>
Schön heit</w>
J our
F rom</w>
F a
E mp
C am
Au ge</w>
zus ehen</w>
we st
w on</w>
ver letz
schö nen</w>
publi shed</w>
pre par
par k</w>
mag ne
it at</w>
ig n</w>
h i</w>
der ung</w>
d ere</w>
com mer
bar keit</w>
ad di
Ver l
T or
Ste ve</w>
Sau er
Qu ad
Pla st
Mex ic
M r.</w>
Kranken haus</w>
Ges prä
D on
An gel
öff net</w>
äus er</w>
Är zte</w>
wass er</w>
v ul
unter schei
t ungs
so li
so bald</w>
shar ed</w>
ra in</w>
pr int</w>
ma gic</w>
ir es</w>
h ous
gene tic</w>
di en
dest ro
dec ades</w>
com mit
bri tan
b ild</w>
antwor ten</w>
Secon d</w>
Proje kte</w>
Me er</w>
F an
Co un
Bed ürf
5 ,000</w>
200 8</w>
zent r
y l
wor kers</w>
temper ature</w>
sur gery</w>
st ates</w>
sig keit</w>
s wit
produc ed</w>
nega tive</w>
ko stet</w>
er funden</w>
eigen es</w>
d ness</w>
ch ron
brau chte</w>
Ver sion</w>
Ph än
Pau l</w>
P ho
Fu ß
Freu de</w>
B on
B ig</w>
äl ter</w>
transp ar
survi ve</w>
soc ieties</w>
r t</w>
ken s
hän gt</w>
g ers</w>
di gt</w>
chem ical</w>
Z elle</w>
You Tu
Verfü gung</w>
St an
Se x</w>
Netzwer k</w>
Materi alien</w>
L etz
Kon ta
K lei
Francis co</w>
Engli sch</w>
Auß er
0 0
trans l
mo m</w>
ir ur
gl ass</w>
entre pren
emo tion
el e</w>
cri min
cor por
b ü
as su
T um
Su b
Sol ar
Rea ktion</w>
Lu ft
Kar ri
Je des</w>
E th
Ah nung</w>
ung spro
spi ri
konzentri eren</w>
ie te</w>
g lie
frü hen</w>
enor mous</w>
e ding</w>
dro p</w>
d ying</w>
d ent
bo ys</w>
bis her</w>
behand eln</w>
bas is</w>
at ter
an k
Zu stand</w>
Regi on</w>
Mich a
ö sen</w>
Ö ko
zun ehmen</w>
tr um</w>
su mmer</w>
sp iele</w>
ph ys
na he</w>
m än
hel ped</w>
ha f
gesch ah</w>
ge be</w>
finan cial</w>
es sen
cre ativity</w>
com fort
au er</w>
any way</w>
ange fangen</w>
Wör ter</w>
Par k</w>
Kre ativ
Antwor ten</w>
vor bei</w>
ver halten</w>
uni que</w>
ti sh</w>
sy mmet
no twen
mo stly</w>
mit ten</w>
low -
lo sen</w>
lie f</w>
größ eren</w>
fü gen</w>
ein halb</w>
e ating</w>
dis eases</w>
dig ung</w>
außer gewöhn
ac i
Th ink</w>
Sp itze</w>
R om
Man che</w>
Jap an
Gra d</w>
Fre unden</w>
Far ben</w>
D ra
B äume</w>
z em</w>
ver bringen</w>
tre mend
tr in
st ran
net works</w>
i ken</w>
h us
en ing</w>
en ess</w>
dis che</w>
arti st</w>
a ster</w>
Verantwor tung</w>
M as
C y
wh ose</w>
wei te</w>
trä ge</w>
supp ly</w>
sh el
s eines</w>
re ma
pop ular</w>
pl us</w>
pl om
passi on</w>
o ber
nach hal
mar k</w>
la ws</w>
ing s
hel d</w>
colleag ues</w>
clo ser</w>
cle an</w>
challeng es</w>
ans wers</w>
alis ierung</w>
ali a</w>
a fra
Ver su
Unter stütz
T ieren</w>
Fern seh
Er stens</w>
1 ,000</w>
zah len</w>
tra vel
the tic</w>
st ick</w>
sp ru
scienti st</w>
sch wer
p et
jour n
größ ere</w>
ge -
eff ects</w>
e chte</w>
ch ines
bir ds</w>
bat ter
b ieren</w>
W erte</w>
V ari
Tem per
No ch</w>
Nahr ungs
M any</w>
Leiden schaft</w>
Komple x
E hr
Den k
w oo
t ons</w>
str ie</w>
schle chte</w>
pres sure</w>
organiz ations</w>
om et
notic ed</w>
m ess
j ec
expl ore</w>
exp ected</w>
exist iert</w>
evol ved</w>
d ür
cor rec
civi liz
NA SA</w>
C enter</w>
wor st</w>
ur sprün
tie f</w>
signific ant</w>
sig n</w>
sig n
relev ant</w>
or ien</w>
me ters</w>
le g</w>
k tor</w>
it es</w>
infra structure</w>
glob ale</w>
ge g
g gl
disco ver</w>
cre di
cap it
beg onnen</w>
Werk zeuge</w>
T isch</w>
Groß britan
Fre und
10 ,000</w>
ver mei
val ent</w>
tr aum</w>
te ch</w>
t ask</w>
r d</w>
r aum</w>
pp er</w>
photogra ph</w>
p ack
manu fac
kontrolli eren</w>
f ung</w>
f s</w>
erzeu gt</w>
effici ent</w>
e ar</w>
con duc
citi zens</w>
caus es</w>
bi a</w>
bel ow</w>
as es</w>
ac ts</w>
W es
T ür</w>
Nä he</w>
Män nern</w>
Gl ück
z .B</w>
tur ning</w>
syst eme</w>
stra tion</w>
sat elli
na tion</w>
komm uni
g liche</w>
fas hi
dimension al</w>
car ry</w>
bu ch</w>
b on
and -
an den</w>
ach ten</w>
a frikan
Wi der
US -
Pl an</w>
N ehmen</w>
H aut</w>
D im
stra ight</w>
ru le</w>
ra y</w>
r unter</w>
progra ms</w>
pi te</w>
nis sen</w>
hal tung</w>
fun ny</w>
experim ents</w>
comple x
atmosp here</w>
alis mus</w>
afra id</w>
We sten</w>
J obs</w>
Gele genheit</w>
F inger</w>
Bür o</w>
At mosp
7 5</w>
20 10</w>
sta g</w>
setz ung</w>
s um</w>
ru fen</w>
re cht
ig arti
he at</w>
har t</w>
go s</w>
ex ten
charac ter</w>
b ought</w>
Unter schie
Re gen
Medikam ente</w>
Indi an</w>
Flug zeug</w>
Er zäh
B us
At lan
An satz</w>
y el
we a
val u
us i
twi ce</w>
sam en</w>
k eln</w>
g an</w>
equ i
degre es</w>
dau ghter</w>
cro w
co m</w>
co ff
biolog ical</w>
b y
ass ung</w>
Typ en</w>
O k</w>
Kon tin
Her zen</w>
Geschä ft</w>
Bi ologie</w>
über leben</w>
wichtig sten</w>
vie ws</w>
ut ter
sym bo
spre ch
ries igen</w>
relation ships</w>
ogni tive</w>
off en
lon g-
lo ad</w>
fl ü
er es</w>
e en</w>
ci ent</w>
br inging</w>
app lic
O sten</w>
K ra
Dis k
D ort</w>
trou ble</w>
produ ziert</w>
pr ise</w>
p ush</w>
k al
j a
ier ende</w>
grei fen</w>
glau bt</w>
gew ach
for get</w>
bed ingt</w>
auf genommen</w>
ag re
Z w
W ur
V ier
Per spek
P op
N etz</w>
Kamp f</w>
B ur
wi ld</w>
sol di
sen den</w>
schir m</w>
qu ick</w>
o es</w>
m ig
foo t
erlau ben</w>
comfort able</w>
cl assi
ch air</w>
Zent rum</w>
Wirtschaft s
Su che</w>
R ussi
Pak istan</w>
N ord
x im
ver ing</w>
ur ing</w>
sug gest
stopp ed</w>
si chti
shar ing</w>
pur pose</w>
oll y
la un
k ünf
intelli gent</w>
ili ty</w>
gelö st</w>
f s
ett bewer
desig ner</w>
d ents</w>
complex ity</w>
ap art</w>
Stre et</w>
Re d
Mi ddle</w>
Kreativ ität</w>
Infra struktur</w>
Ge fühle</w>
Euro pe
A l</w>
2 ,000</w>
zus etzen</w>
wh er
tion ed</w>
stre ets</w>
ster o
ro man
ra tional</w>
par ty</w>
moun tain</w>
geschi chte</w>
g ilt</w>
erwar tet</w>
entschei den
ed back</w>
ec o
dr in
dor thin</w>
differ ences</w>
cor e</w>
communic ate</w>
cam pa
bro ken</w>
bir th</w>
ah men</w>
acc ep
a i</w>
Viel falt</w>
Sch ei
Kl asse</w>
Intelli gen
Inst ead</w>
Glau ben</w>
E m
D eu
ö se</w>
we b</w>
ten dlich</w>
st äd
oxy gen</w>
mem bers</w>
me th
lei st
impro ve</w>
hy dro
ge halten</w>
f ying</w>
en ze</w>
eig n</w>
con serv
cho ices</w>
cap ital</w>
c ise</w>
beeinflus st</w>
b a</w>
ak tiv</w>
a gement</w>
Verbin dungen</w>
Ste u
Ner ven
Micha el</w>
Desig ner</w>
A ch
w en</w>
voll en</w>
un be
um zu
tim ately</w>
stud ying</w>
so genan
ro ll
rec ent</w>
re mo
hi elten</w>
ge m</w>
er möglichen</w>
differ ently</w>
cre ates</w>
con sum
con ference</w>
b its</w>
Tr aum</w>
B ank</w>
versu ms</w>
v e-
spee ch</w>
s and</w>
ro oms</w>
redu ce</w>
re agieren</w>
posi te</w>
k m</w>
ha m</w>
h ause</w>
fi z
comp on
bu b
bra chten</w>
achie ve</w>
V en
Fen ster</w>
Chic ago</w>
C he
überr as
weiter hin</w>
war t</w>
verk auft</w>
ven tion</w>
seem ed</w>
res sion</w>
ra ce</w>
r ing
quo te</w>
j ün
iPh one</w>
high ly</w>
fra gten</w>
experi ences</w>
cor ner</w>
consci ousness</w>
communic ation</w>
bu tion</w>
alis ieren</w>
add ress</w>
YouTu be</w>
Prof essor</w>
Ler nen</w>
Kin d
D P</w>
Bra zi
zi ge</w>
x es</w>
wei s
res sed</w>
re chten</w>
r ou
pass ed</w>
molec ules</w>
hel ping</w>
foc used</w>
fle xi
bu chst
as ili
Unterschie de</w>
Na tion
M icro
K eine</w>
Inter ak
Gesell schaften</w>
Bo ston</w>
A gain</w>
wi esen</w>
vor zu
us ual</w>
ta il</w>
t um</w>
si tes</w>
re chte</w>
poli tischen</w>
par a
oc e
o ffen</w>
landsc ape</w>
l eh
ko sten</w>
gen ome</w>
ent steht</w>
de vices</w>
cent ral</w>
c um
bal ance</w>
att ack</w>
at om
an te</w>
a vo
Pro to
H under
Dar win</w>
D -
Bit te</w>
Ab end</w>
A us</w>
ü l
uns ch</w>
tri al</w>
ter -
stim men</w>
sp ending</w>
sle ep</w>
shi ft</w>
secre t</w>
sc an
poli tische</w>
po unds</w>
ob il
ne ten</w>
mis sing</w>
l ab
intro duc
gest alten</w>
ent schied</w>
eas ily</w>
ck er
c amp
an ischen</w>
Ver k
Sch imp
Komplex ität</w>
Ge we
C E
Bo tschaft</w>
ti scher</w>
te ste</w>
s weise</w>
re vol
leben s
is o
fem ale</w>
fas st</w>
est i
eng age</w>
einfa cher</w>
e a</w>
deut lich</w>
cro s
char ge</w>
Re gel</w>
H all
Deu t
D er
wu chs</w>
tu red</w>
ta tions</w>
ta te</w>
stad t</w>
sei en</w>
l es
k y</w>
ju st
g lo
führ ung</w>
en heit</w>
desig ners</w>
beg eist
be stehen</w>
b one</w>
ali ze</w>
T radi
S an
K r
Je de</w>
Gesch windigkeit</w>
Fl uss</w>
zo g</w>
wär ts</w>
wor ry</w>
ser ve</w>
r ying</w>
r ie</w>
pop ul
no te</w>
mo tion</w>
me tho
la den</w>
kl ingt</w>
ir s</w>
exp on
en ga
de b
arti sts</w>
an ten</w>
an no
al a</w>
Ver gleich</w>
To chter</w>
S am
S -
P re
Ni emand</w>
F le
zus ätz
vul ner
tremend ous</w>
schwi er
responsi bility</w>
opport unities</w>
on ate</w>
letz tes</w>
grei f
fl u</w>
einz igarti
ear th</w>
blo ck</w>
bemer kens
an cient</w>
alle y</w>
Res ul
Jahr es</w>
D id</w>
Ac tually</w>
200 7</w>
- year-old</w>
wi eso</w>
w ächst</w>
v ement</w>
sp ei
sa ß</w>
p id</w>
mo di
ie gel</w>
hear ing</w>
gele gt</w>
fi x</w>
der ship</w>
dau ert</w>
cu stom
bit ten</w>
behand elt</w>
beeinflus sen</w>
autom ati
al tung</w>
Zusammen hang</w>
Wiki pedia</w>
Vir us</w>
Vide o
Ro bert</w>
Po liz
Physi k</w>
M ir</w>
H is</w>
Atmosp häre</w>
woh in</w>
ver folgen</w>
um ente</w>
sel t
pris on</w>
possi bility</w>
n one</w>
mut lich</w>
ma ga
l am
kon om
ich tet</w>
h ell</w>
g al</w>
fül lt</w>
fül len</w>
fri ka</w>
fol ge</w>
ent stehen</w>
e e
condi tion</w>
b us</w>
an throp
amerikan ische</w>
ada p
Ta ke</w>
Neur onen</w>
Isl am</w>
win dow</w>
verfü g
tro tz</w>
tr en
st ück</w>
sitz t</w>
ro ck</w>
res ol
relig ion</w>
pri mar
l ying</w>
ie gen</w>
fe els</w>
far mers</w>
exp ec
ent lang</w>
en det</w>
e dge</w>
car to
bre ak
Unterstütz ung</w>
Kil ometer</w>
Inter ess
Go od</w>
Ge w
A p
un den
taus end</w>
sel y</w>
mus eum</w>
lu cky</w>
ic kt</w>
h or</w>
frei en</w>
fli es</w>
fi x
ear s</w>
da gegen</w>
d äch
d ungs
coll ap
co unter
be trifft</w>
am in</w>
Ter ror
Städ ten</w>
Sp ielen</w>
Organis ationen</w>
O pfer</w>
F ein
z y
verursa cht</w>
tä glich</w>
tra g
s em
rei fen</w>
rei cht</w>
re por
pain ting</w>
ou l
n om
krie g</w>
kl in
inspi red</w>
industri al</w>
h un
gan zes</w>
expon enti
e te</w>
de a
bo t</w>
aff ord</w>
Zusammen arbeit</w>
W ind</w>
Sek unde</w>
Relig ion</w>
Po sition</w>
Mat erie</w>
L ap
Konfer enz</w>
K ir
Großbritan nien</w>
Dru ck</w>
B is</w>
A dam</w>
1 4
üs se</w>
weiter es</w>
wei ten</w>
wan del</w>
sol d</w>
res er
off er</w>
leb ten</w>
il ed</w>
ik er</w>
heal th
for ever</w>
fair ly</w>
extre me</w>
ex er
er stellen</w>
entwick elten</w>
ent lichen</w>
elec tron
defin ition</w>
da vor</w>
con st
chil d
ass es</w>
Uni versums</w>
Sol daten</w>
S we
Ris iko</w>
Ne w
J er
H i
Ein kommen</w>
Audi ence</w>
tu m
tra de</w>
ti gung</w>
te en
stand s</w>
sho p</w>
radi o</w>
r ough
kno wing</w>
ha ir</w>
gra ph</w>
gew onnen</w>
g in</w>
erstaun lich</w>
dic al</w>
c el
benö tigen</w>
ast ron
W ü
W at
TED -
Schimp an
S and
G han
Bri tish</w>
überzeu gt</w>
th row</w>
se e
necess ary</w>
mög liche</w>
mom ent
men te</w>
j ahr
gewach sen</w>
gel assen</w>
f ische</w>
diesel be</w>
au ton
ati ves</w>
Unter su
St är
N a</w>
L au
Gefän gnis</w>
Fr en
Famili en
F abri
Bür ger</w>
200 5</w>
v acc
tri tt</w>
struc tures</w>
sto ßen</w>
s ul
religi ous</w>
op posite</w>
o ther
mom ents</w>
l auf
jo in</w>
is on</w>
invest ieren</w>
imag ination</w>
haup t
h ing</w>
gab e</w>
f es
dist ance</w>
ch eck</w>
c ell
bru ch</w>
bo at</w>
besch reiben</w>
berüh m
arg ument</w>
app ly</w>
Th om
Str ei
Ster ne</w>
Som mer</w>
S äu
Par is</w>
Obje kte</w>
Mod elle</w>
L es
Kommunik ation</w>
Ira q</w>
Ein fa
E p
A h</w>
wir st</w>
wieder um</w>
un bedingt</w>
so wie</w>
phenomen on</w>
partic les</w>
neigh b
li c</w>
kon stru
klär ung</w>
heraus gefunden</w>
fic ation</w>
fi k
de -
da ß</w>
con fi
bl ed</w>
beschäf tigt</w>
b ird</w>
ass em
al og
Ver halten
Tran sp
Institu te</w>
Hö he</w>
Fäl len</w>
Fern sehen</w>
F rank
Bed ingungen</w>
B .</w>
A ri
veröffent licht</w>
verdi enen</w>
us ive</w>
sa f
s la
r ein</w>
natür liche</w>
m ann</w>
it able</w>
intu i
identi ty</w>
gebil det</w>
fail ure</w>
erfor schen</w>
er stes</w>
coff ee</w>
b all
außer dem</w>
Th anks</w>
S ehr</w>
Pri vat
Lo ch</w>
Intelligen z</w>
Ger äte</w>
Bi enen</w>
wissenschaft liche</w>
typic al</w>
ter en</w>
sp here</w>
sor ry</w>
so zusagen</w>
respon d</w>
no tion</w>
nam es</w>
moder nen</w>
lei sch</w>
lau tet</w>
in j
fin ished</w>
fi ziert</w>
fi k</w>
fa hr</w>
erklär t</w>
degre e</w>
d den</w>
cre atures</w>
competi tion</w>
ch ers</w>
cat ch</w>
benö tigt</w>
b o</w>
Zi vili
V ö
V alley</w>
S ar
P rei
N an
J ohn
Ha ve</w>
H on
Fr üh
Europe an</w>
A R
vol un
v ity</w>
t tel</w>
stei gt</w>
sig nal</w>
sel ber</w>
rec y
re gel
p ush
ne arly</w>
minist er</w>
kör per
kehr en</w>
inter act</w>
in dic
fähr t</w>
do ws</w>
co vered</w>
benef its</w>
bar es</w>
ari an</w>
am i
ad op
Wal d</w>
St amm
L ar
Fu ß</w>
Dur ch</w>
Aus bildung</w>
2 ,
über tragen</w>
zufäl lig</w>
yel low</w>
ver stän
unterschied lichen</w>
tur ing</w>
t ac
sicher lich</w>
sequ ences</w>
s inn
s et
re pe
prof it</w>
olog ist</w>
necess arily</w>
n es</w>
lei der</w>
ko sten
eff ort</w>
descri be</w>
consci ous</w>
buchst ä
all eine</w>
To des
St at
Ob ama</w>
K aff
B re
wass er
verbrei tet</w>
um gehen</w>
ta g
t olle</w>
sch m
rais ed</w>
pu ts</w>
kommuni zieren</w>
gr y</w>
gef allen</w>
f ing
f abri
eng ine</w>
da hin</w>
cy cle</w>
col ors</w>
bo un
bl ü
bezah len</w>
ber g</w>
be ten</w>
arbei teten</w>
ar ies</w>
ak es</w>
W unsch</w>
W andel</w>
St ro
Schwi er
Nor den</w>
M ehr
Indu stri
1 6
ä be</w>
tis sue</w>
te u
sur v
st em</w>
sch lu
ro b
res pect</w>
n chen</w>
m ir
lea dership</w>
le ading</w>
fig ured</w>
ema il</w>
con cent
call s</w>
be halten</w>
S co
Mexic o</w>
Met ap
Feu er</w>
F alls</w>
Asi a</w>
Angel es</w>
2 7</w>
y ra
vic ti
v an</w>
u fen</w>
tö ten</w>
tra ined</w>
stor ben</w>
sor gen</w>
sch einen</w>
ri g</w>
responsi ble</w>
ra in
qu i
pu zz
plan ets</w>
organis ms</w>
on y
lich sten</w>
l abor</w>
k li
k a
ist ic</w>
f iel</w>
ev ents</w>
el er
el a</w>
des pite</w>
bl ing</w>
ben utz
alis iert</w>
Z un
Wi chti
W ould</w>
Thom as</w>
Sat elli
S ind</w>
R I
M asse</w>
Karri ere</w>
Institu tionen</w>
Geschäft s
Fren ch</w>
überr asch
wir kt</w>
wei ss</w>
ver mutlich</w>
unter nehmen</w>
ti tude</w>
t em</w>
sk el
sex ual</w>
sec tor</w>
sch alten</w>
plac ed</w>
no ise</w>
import antly</w>
gelan gen</w>
el ements</w>
durch geführt</w>
coun t</w>
bus in
bet eili
abili ties</w>
Ver trauen</w>
Spe k
Sp iele</w>
Sch au
Klima wandel</w>
K unden</w>
G o</w>
Char ak
Bild ungs
3 D</w>
zu künf
woh ner</w>
w ü
un ts</w>
suff ering</w>
stan ces</w>
st isch</w>
sicht bar</w>
p as
l äch
hel ps</w>
gewäh lt</w>
eas ier</w>
dre ams</w>
d unk
ch imp
brilli ant</w>
besit zen</w>
ativ ely</w>
Werk zeug</w>
T est</w>
P le
Milliar de</w>
L ern
zei chen</w>
wichtig ste</w>
war m</w>
voll kommen</w>
versu s</w>
v a</w>
stra h
re turn</w>
oper ating</w>
oc cur
ner v
mo thers</w>
m as</w>
ly mp
li gen</w>
it ely</w>
hol ding</w>
gl am
f ill</w>
f ically</w>
es z
ander em</w>
af ten</w>
ac qu
Wa ffen</w>
Some times</w>
S atur
Proble men</w>
N utzen</w>
Ha iti</w>
Fortschri tt</w>
Col lege</w>
B eine</w>
A ni
2 5
z elle</w>
un k</w>
ti ver</w>
ti li
sta b</w>
si ch
s low
ob s
o g</w>
ler nt</w>
hus band</w>
hi li
gen i
et ten</w>
dest ens</w>
buchstä blich</w>
bas iert</w>
back ground</w>
att emp
app reci
anc est
alterna tive</w>
Vide os</w>
T reib
Qu alität</w>
M ess
M ah
Hir n
Herausforder ungen</w>
Gesch le
Ges etze</w>
Elek tro
E cke</w>
Bil dern</w>
Aus druck</w>
200 9</w>
2 .
zu bringen</w>
vis it</w>
st ress</w>
spac es</w>
open ed</w>
nut ri
ne e</w>
mor gen</w>
m ouse</w>
lei d</w>
ist ry</w>
intel lec
gr aben</w>
g ig
führ er</w>
fac ts</w>
entwick elte</w>
bl es</w>
be at</w>
Jung s</w>
Groß teil</w>
Fil me</w>
überras cht</w>
w ander
tz e</w>
stan tly</w>
sim ul
si ck</w>
philosop h
part ment</w>
p it
näch stes</w>
le ts</w>
la w
k es
is cher
ho hen</w>
h ne</w>
gel aden</w>
en joy</w>
ea u</w>
disco very</w>
br and</w>
b aut</w>
Ver y</w>
Sch ni
M ore</w>
L ast</w>
K e
Indu strie</w>
Erinn erung</w>
Bab ys</w>
Öff ent
wirtschaft lichen</w>
weap ons</w>
wa ve</w>
v ent
tal ter</w>
su it</w>
stre am</w>
stol z</w>
star b</w>
s ac
ro ll</w>
pre vi
lin ken</w>
kümm ern</w>
in ge</w>
i or</w>
i op
gi ant</w>
f eu
erinn ert</w>
cap able</w>
billi ons</w>
bi et
b ase</w>
absol ute</w>
Zu erst</w>
Progra mm
O ver</w>
M and
Kon text</w>
Kar ten</w>
Grün den</w>
Ge gent
2 2</w>
. com</w>
zi gen</w>
zeu g
wer te</w>
weiter en</w>
wahr en</w>
w alls</w>
ungs kraft</w>
sud den</w>
stu ck</w>
setz te</w>
pho to</w>
nä her
mar kt</w>
li ge</w>
lei den</w>
lea ds</w>
l as</w>
krie gen</w>
ir gen
inte gri
hor ri
get ö
gegen sei
fal sche</w>
fac tory</w>
enti eren</w>
ein ander
di ent</w>
bah n</w>
Wahr neh
T ür
Phän omen</w>
On ce</w>
N ichts</w>
M assen
Lei stung</w>
Is land</w>
Inse kten</w>
Ho wever</w>
Hig h
Gemein de</w>
Gegent eil</w>
G eri
E- Ma
Br enn
wa chen</w>
vi a</w>
ul timately</w>
suc ce
schau te</w>
rep ort</w>
p lo
olly wood</w>
nat ur
n ets</w>
mi x
jähri gen</w>
ge zogen</w>
figh ting</w>
f light</w>
ern ähr
enti rely</w>
dür fen</w>
di um</w>
det was</w>
cre ation</w>
cor ding</w>
ch em</w>
br ings</w>
best im
bes or
benef it</w>
bemer kt</w>
b ten</w>
anc y</w>
aliforni en</w>
ag ers</w>
Zwei tens</w>
Sor gen</w>
Part ner</w>
Konta kt</w>
Jour n
F as
F ach
D H</w>
z one</w>
ver bracht</w>
ul l
ti er
studi ed</w>
sc ulp
perf ec
or ed</w>
mon it
lie ber</w>
lea ving</w>
just ice</w>
irgend wann</w>
hin ein
g ely</w>
for schung</w>
ex tin
el ine</w>
du e</w>
dr än
di o
d ol
d ar</w>
cau ght</w>
be t</w>
Z iele</w>
Sy n
Spra chen</w>
Kl assen
Ghan a</w>
Frie den</w>
zei ten</w>
voll ständig</w>
vir tual</w>
verstän dlich</w>
verhin dern</w>
sa ving</w>
ro und</w>
promis e</w>
new sp
n ungen</w>
mo ves</w>
k n
ins ects</w>
h au
gu n</w>
gen cy</w>
e ure</w>
conv inc
co ol
begeist ert</w>
at ta
an ten
an st
ab li
Zei chen</w>
S ur
Perspek tive</w>
O c
Inter net
Her r</w>
Fre m
F isch</w>
Dri ttel</w>
B G</w>
Amei sen</w>
z ität</w>
wei rd</w>
we alth</w>
verwand eln</w>
trie b</w>
strateg y</w>
ri d</w>
ri chtungen</w>
qu ali
pro fi
predic t</w>
po st
mög licherweise</w>
l ack</w>
imm er
hy po
gewis se</w>
gen eh
gef äl
ge habt</w>
fill ed</w>
ent werfen</w>
elec tro
di eren</w>
di cht</w>
d einen</w>
ch -
bili ties</w>
bess eren</w>
belie ved</w>
advan tage</w>
acc eler
Zu schau
Wahrschein lichkeit</w>
W ettbewer
Them en</w>
Tal k</w>
S eh
R uss
Ph ilosop
N ar
Gr enze</w>
Di agra
Bru st
A s
überzeu gen</w>
uni versity</w>
ter t</w>
so il</w>
slow ly</w>
ri ver</w>
mathema tics</w>
mar ried</w>
influ ence</w>
ho he</w>
geb ro
forder t</w>
er hält</w>
consu mption</w>
car d</w>
at trac
V ision</w>
St ar
Sci ence</w>
Re de</w>
Land wirtschaft</w>
I t
Hän den</w>
Hinter grund</w>
Every body</w>
C a
ä s
Ü ber</w>
zurück zu
zi el
wunder bare</w>
wahr e</w>
v es
un fortunately</w>
tu e</w>
therap y</w>
t ent
sp ot</w>
s op
organ ic</w>
oper ate</w>
mat ters</w>
limit ed</w>
jähri ge</w>
inter agieren</w>
in ci
hö her</w>
her unter
haupt sächlich</w>
grün det</w>
ge hören</w>
ge hei
g ei
fashi on</w>
equ al</w>
ent al</w>
en ni
electri c</w>
deter min
depres sion</w>
den k
con stantly</w>
blo ß</w>
bestim men</w>
ap s</w>
am ing</w>
Stru kturen</w>
S atz</w>
Poliz ei</w>
H ör
C l
B om
Aufgab en</w>
ä r</w>
y n</w>
wa gen</w>
verantwor tlich</w>
trans form</w>
sp häre</w>
si chten</w>
separ ate</w>
ri chtung</w>
prakti sch</w>
ome ters</w>
oce ans</w>
neu er</w>
letz tendlich</w>
lea der</w>
lau gh
invest ment</w>
in visible</w>
hi bi
hea ds</w>
gu i
getö tet</w>
führ ten</w>
fre und
er seits</w>
en ever</w>
em bra
ein setzen</w>
concer ned</w>
child hood</w>
bro ther</w>
bl au
be dro
ar a</w>
ag ne</w>
W et
U N
L ang
Jan u
Identi tät</w>
I I</w>
Hand y</w>
F lä
Ern ähr
E ing
Ar g
Al gorith
2 3</w>
- up</w>
v ast</w>
ut ing</w>
tal ks</w>
sur prise</w>
sm us</w>
sch mer
prot ein</w>
or al</w>
on ie</w>
lie b</w>
less on</w>
lau t</w>
irgen detwas</w>
il legal</w>
för dern</w>
for eign</w>
ester day</w>
erkan nte</w>
engine ers</w>
ei le</w>
bre ast</w>
belie f</w>
be geg
Ver häl
Sch o
Präsi dent</w>
Micro soft</w>
Me chan
H und</w>
Ge wicht</w>
Br asili
Bl ut</w>
B erg
Ak tiv
zäh len</w>
versu chten</w>
tt es</w>
traff ic</w>
sc en
rand om</w>
maj ority</w>
m outh</w>
li t</w>
k ö
inv en
interessi eren</w>
galax ies</w>
fin gen</w>
fascin ating</w>
fail ed</w>
emo tions</w>
cor tex</w>
clo sed</w>
civi l</w>
cir cu
bre ad</w>
arti f
ar ms</w>
appro ach
an o</w>
ad ults</w>
Ver letz
U g
Sp r
Re publi
K ing</w>
Ger äu
Ge fahr</w>
Eff ekt</w>
Außer dem</w>
Ak tivität</w>
tre ated</w>
to x
ti s</w>
the ater</w>
t dem</w>
spra chen</w>
perfe kt</w>
nar ra
min destens</w>
lin ge</w>
it h</w>
hin weg</w>
her gestellt</w>
gew and
gel esen</w>
ea p</w>
dr in</w>
deli ver</w>
deep ly</w>
collec tive</w>
c ans</w>
brau chten</w>
ber n</w>
appro pri
anti -
Z äh
S un</w>
La den</w>
Fel d</w>
z ess</w>
we ar</w>
w ör
tra in
ti ges</w>
ter n
star ke</w>
st one</w>
sm all
pr oud</w>
pi elt</w>
na h</w>
man aged</w>
m utter</w>
le tter</w>
kön nt</w>
inv ited</w>
inter action</w>
hy per
her en</w>
h es</w>
gradu ate</w>
gg le</w>
er lebt</w>
ec ken</w>
comp li
co o
beg ins</w>
ash ing</w>
ar gue</w>
ali sten</w>
Z au
V is
Tex as</w>
Sta at
Schl uss</w>
Sch wei
F ig
Ein satz</w>
De fin
Öffent lichkeit</w>
wissenschaft lichen</w>
wichti gen</w>
wi lli
tol er
th -
tal ity</w>
st eps</w>
sam er</w>
s lo
ri chtet</w>
ri age</w>
prac tic
pa ying</w>
min im
kti v</w>
kan er</w>
ha te</w>
gent le
fo tograf
f ei
et ry</w>
erzäh le</w>
er er</w>
equ ality</w>
ein gesetzt</w>
di enen</w>
des er
der zeit</w>
demo kra
compar ed</w>
cir cle</w>
but ed</w>
bekan nten</w>
O lymp
Molekü le</w>
Mit t
K rise</w>
Ju li
Exper ten</w>
Er leb
Be griff</w>
6 5</w>
ähn liche</w>
wen igen</w>
u g
ti gte</w>
th ough
te sting</w>
struc tion</w>
stell er</w>
sta at
si ster</w>
ran ts</w>
qu anti
perfec tly</w>
or es</w>
no chmal</w>
ne ben
mei stens</w>
lin k</w>
kur ze</w>
iz ation</w>
imp lic
il ing</w>
hon est</w>
ges pielt</w>
frü h</w>
f old</w>
e f</w>
dri tten</w>
der ungen</w>
def ine</w>
conc ep
commer cial</w>
campa ign</w>
be kamen</w>
be grenz
as p
T ab
Sü d
Stra ß
R oll
Par a
Min ute</w>
Li ed</w>
K ern
K am
H aufen</w>
H au
Gedan ke</w>
Forsch er</w>
Experim ente</w>
Din osau
Bas is</w>
2 1
öffent liche</w>
wh om</w>
wel chen</w>
ti ere</w>
repres ent</w>
profession al</w>
pro found</w>
poli tici
physi ci
or row</w>
nan nte</w>
mo on</w>
masch ine</w>
lich em</w>
langu ages</w>
l ändern</w>
l abor
k it
ish ing</w>
ip ment</w>
in form
hunder te</w>
hoff entlich</w>
gener ate</w>
ge wicht</w>
er ster</w>
e chten</w>
descri bed</w>
de cl
ch eap</w>
ben en</w>
ad ver
ab sor
T on
Sozi al
Sauer stoff</w>
R em
M el
Ken ya</w>
Forsch ungs
E gyp
C ent
C al
Bild schirm</w>
App le</w>
Ale x
A li
ütz t</w>
woh l
wis dom</w>
we aring</w>
war ming</w>
vehic le</w>
unterschei den</w>
und ing</w>
surpris ed</w>
stän den</w>
steu ern</w>
sensch aften</w>
s ä
re de</w>
other wise</w>
op in
norm alen</w>
le gi
iz on
in ce</w>
il lu
ier enden</w>
i ds</w>
i at
häu fig</w>
gesch ickt</w>
galax y</w>
fiel ds</w>
equi valent</w>
eff ec
dopp elt</w>
distri bution</w>
dau ern</w>
busin esses</w>
ar -
ac tivi
T au
Ob wohl</w>
N ation</w>
Ira k</w>
Ge win
Elek tri
D rei
D en</w>
Be obach
Auß en
9 5</w>
ätz e</w>
wech sel
us w</w>
trei bt</w>
th ri
th eit</w>
si x
sch ule</w>
re ve
neighbor hood</w>
n ungs
l ung
l eren</w>
g igkeit</w>
g as
follo wed</w>
every day</w>
ern sth
ern st</w>
er ungs
ep idem
en k</w>
ele ph
drück t</w>
dra wing</w>
c ent</w>
atur en</w>
agri culture</w>
Ug anda</w>
Tit el</w>
Th ree</w>
Schwe ster</w>
R ät
R at
P fer
O s</w>
Na tionen</w>
Bro t</w>
zu gän
un less</w>
the orie</w>
t ome</w>
t ar</w>
ru f</w>
re t
on ed</w>
mus st</w>
me at</w>
laun ched</w>
l len</w>
ju d
it ation</w>
ist er</w>
hän gen</w>
ho ffen</w>
exist s</w>
exist ieren</w>
dri ven</w>
cor al</w>
class room</w>
civiliz ation</w>
bere ch
be wesen</w>
auf hören</w>
aff ect</w>
ab etes</w>
S eit</w>
Mei len</w>
K ann</w>
K alifornien</w>
Gel d
Do es</w>
Ch irur
10 .000</w>
ü gen</w>
zeu gen</w>
z ar
vide os</w>
tel e
te sts</w>
spiel te</w>
re präsenti
pp t</w>
nö tig</w>
molec ule</w>
men tioned</w>
l -
kre bs</w>
ke ys</w>
h te</w>
gest ern</w>
f en
ck ets</w>
bu te</w>
bezah lt</w>
berei tet</w>
as on</w>
all ge
Zu hause</w>
We bs
Telef on</w>
Sta at</w>
Schlüs sel</w>
Mü tter</w>
Lauf e</w>
Kom pon
Kom bin
Ir gend
Gr öß
Glei che</w>
Gehir ne</w>
F ische</w>
Every thing</w>
Eig entlich</w>
E ach</w>
D ass</w>
Bu chst
Ber e
B a
z ung</w>
wirtschaft liche</w>
vo te</w>
spar en</w>
si eren</w>
seri ously</w>
s and
r hyth
pri vi
plan ning</w>
organiz ed</w>
norm ally</w>
m -
inv est</w>
h aus
g äbe</w>
g ment</w>
for ced</w>
finan zi
fi zieren</w>
dis ku
d ün
d inner</w>
be antworten</w>
auf tau
astron om
as er</w>
accoun t</w>
a ft</w>
T ö
Schimpan sen</w>
Sch wer
M ad
Liebl ings
La chen</w>
Gan g</w>
G et
Fol gendes</w>
Erkenn tnis</w>
Brazi l</w>
B ay</w>
An aly
200 6</w>
wunder bar</w>
wa ke</w>
univers al</w>
se at</w>
s ett
ro ten</w>
pa int</w>
p fe</w>
n utzt</w>
gro wn</w>
equ ipment</w>
ent spricht</w>
econom ics</w>
e as</w>
dem and</w>
cri me</w>
car ds</w>
besch le
am m</w>
aller dings</w>
Zei talter</w>
Z eh
W under</w>
T ag
S amm
Gegen satz</w>
Fol ge</w>
E mo
E ch
Co de</w>
Beweg ungen</w>
B un
B F</w>
200 4</w>
thre at</w>
th ir
tan e
survi val</w>
skel et
schli mmer</w>
princi ples</w>
pl atz</w>
pf el</w>
norm ale</w>
mo vi
man agement</w>
ma ß</w>
m ul
li br
k -
ig t</w>
ic ken</w>
hö re</w>
ger ät</w>
ga ther
g sten</w>
f ell</w>
desig ning</w>
dau er
c ognitive</w>
brau che</w>
au ff
ali sts</w>
Z ell
Stim men</w>
Sta te</w>
R ahmen</w>
P en
On lin
Gan ze</w>
Galax ien</w>
B aum</w>
An dere</w>
A ra
ö konom
zun eh
wen ig
we gs</w>
ver gleichen</w>
us ers</w>
t ough</w>
stam mt</w>
sha pes</w>
rep lic
r aus
r ates</w>
prev ent</w>
pho tos</w>
pflan zen</w>
p ages</w>
olo ge</w>
maga zine</w>
l lan
kom bin
k rank</w>
j ump</w>
gi f
er finden</w>
dol ph
den noch</w>
defin ieren</w>
bo ten</w>
bar er</w>
app ar
air plane</w>
W omen</w>
P hili
M R
Kor ea</w>
Ger many</w>
Er inner
Ein druck</w>
Bru der</w>
B eri
Arbei ten</w>
verbrei ten</w>
um ge
tä ten</w>
ten zi
techni cal</w>
spür en</w>
som it</w>
sent ence</w>
s w
ru ral</w>
recei ved</w>
ort ing</w>
mor tality</w>
mati sch</w>
los sen
increas ingly</w>
hop efully</w>
gi eren</w>
gh t-
gefähr lich</w>
g or
g ie</w>
con tr
cir cum
char acter
cha in</w>
c on</w>
artic le</w>
an er</w>
To ile
T emp
S ing
Poli tiker</w>
P i
Kre bs
Et was</w>
än ge</w>
än g
wea ther</w>
w est</w>
to ward</w>
to t</w>
thin ks</w>
sur ge
statist ics</w>
sin n</w>
schnei den</w>
s st</w>
ra pi
ogra phic</w>
nerv ous</w>
müs ste</w>
män n
mes sa
m elt</w>
g ate</w>
fa ith</w>
eng li
ein iger</w>
direc t</w>
bedeu ten</w>
bau ten</w>
avo id</w>
ac cu
We bsite</w>
Vort eil</w>
Ver stand</w>
T est
Spiel er</w>
Produ ktion</w>
Mon d</w>
Mis sion</w>
In nen
C ra
B all
A ir
A ffen</w>
worl d
wa ves</w>
ver trauen</w>
ul ous</w>
sicht lich</w>
sel ten</w>
s na
part ner</w>
neh mer</w>
multi ple</w>
mu ster</w>
lea ves</w>
lang wei
l unch</w>
kl ass
ki d
invest ig
gr at
f isch</w>
f inger</w>
experi enced</w>
engine er</w>
en den
dynam ic</w>
deb ate</w>
cat eg
ar men</w>
ad dic
T un
Sig n
Schri ft
Pati ent</w>
Metho den</w>
Le bewesen</w>
Fl ori
D an</w>
C ap
Bau m
Augen blick</w>
3 2</w>
2 8</w>
2 6</w>
ät s
z wan
sch ien</w>
r o</w>
princi ple</w>
p ort</w>
os sen</w>
mat ch</w>
li ked</w>
kur zen</w>
industr ie</w>
har der</w>
h em
gener ations</w>
genau er</w>
fe edback</w>
f ter</w>
emplo ye
dr üben</w>
dimen sions</w>
deta il</w>
contin ent</w>
construc tion</w>
comp are</w>
col on
ch ungen</w>
bein hal
Th ei
T on</w>
Stan ford</w>
P A</w>
Netzwer ke</w>
Nach dem</w>
Na ja</w>
N ie
M aga
Kop f
Kind heit</w>
K ein</w>
Ges am
Gebur t</w>
Gan z</w>
Fr ü
Entdeck ung</w>
Ele mente</w>
Ein s</w>
C ome</w>
An sicht</w>
2 4
10 0,000</w>
zun ächst</w>
tri lli
su chte</w>
soldi ers</w>
sign als</w>
sch rän
sc ene</w>
proper ty</w>
produc ing</w>
pro por
open ing</w>
mäß ig</w>
lu stig</w>
kil ometers</w>
k tivität</w>
gr an
go ti
ex plan
energ ie</w>
du ce</w>
cont act</w>
collec t</w>
auf bauen</w>
associ ated</w>
appe ar</w>
Wi eso</w>
W illi
Verhalten s
Teil chen</w>
T om</w>
Su d
Schl ag
Organis men</w>
Kör pers</w>
H am
Gener ationen</w>
D ie
Austr alia</w>
2 50</w>
volun te
thes is</w>
surpris ing</w>
stat us</w>
star ten</w>
st ür
spir it</w>
spe kt</w>
schli mm
ro mo
redu zieren</w>
pf lich
mo tor</w>
lie ß
let ters</w>
kill ing</w>
in fin
hör ten</w>
fre m
en em
electri cal</w>
da mage</w>
da ily</w>
d liche</w>
connec tions</w>
con cl
clo ck</w>
c in</w>
berü hrt</w>
ber i
b ine</w>
acci dent</w>
Uni on</w>
Taus ende</w>
Sp ei
R ak
Man hat
Land schaft</w>
Kre u
Isl am
Ihr es</w>
Hin sicht</w>
20 th</w>
z ten</w>
wat ched</w>
vir uses</w>
vi ert</w>
ver brachte</w>
tar get</w>
st ische</w>
spr ingen</w>
sm ell</w>
per man
p ig
p ft</w>
or ders</w>
natür lichen</w>
metap hor</w>
mean ing
ken nung</w>
is land</w>
inst all
h n
f ert</w>
ersch einen</w>
er y</w>
ent worfen</w>
ec kt</w>
dri ver</w>
bu dget</w>
bei spiel
am ent</w>
ad ult</w>
Wei le</w>
T ests</w>
Schmer z</w>
R oh
Pro ject</w>
Plan et</w>
Nation al
Individu en</w>
Gener al</w>
Gemein den</w>
GP S</w>
Ent fer
D abei</w>
Can ada</w>
Bu dd
A spekt</w>
ver mu
v ölk
v oc
v ac
tis m</w>
t ie</w>
sätz lich</w>
spr ing</w>
sh ort
sch land</w>
rel ativ</w>
po or
oc cu
ne goti
m as
kürz lich</w>
kl en</w>
identi fy</w>
hol es</w>
high est</w>
ge ändert</w>
ft ung</w>
expres sion</w>
er kennt</w>
ent standen</w>
ein deu
dr an</w>
den s</w>
curr ently</w>
con sequences</w>
caus ed</w>
as i</w>
anno un
ab e</w>
Thei r</w>
K räfte</w>
J e</w>
Fun ktion</w>
Fo undation</w>
F isch
Erei g
D unk
B illi
B C</w>
Arbeit sp
8 00</w>
200 1</w>
- F
zeh n
wech seln</w>
versch winden</w>
un er
tradition ellen</w>
st ance</w>
spiel er</w>
si ert</w>
remo te</w>
ra tion
prof essor</w>
p hen</w>
ol ds</w>
ob serv
movi es</w>
mor gens</w>
ma ß
los ing</w>
inter vie
in ne</w>
hom es</w>
hi dden</w>
hal be</w>
grand mother</w>
gi ge</w>
füh l
for ests</w>
far m</w>
f ran
f ein
emp ty</w>
besch lossen</w>
besch loss</w>
Wer bung</w>
Wah l
Vi et
Se qu
S il
Ro ck
P ingu
L E
Japan ese</w>
H un
Chem ik
2 9</w>
zu frie
y esterday</w>
wo bei</w>
wei b
v on
swit ch</w>
sh oul
resear chers</w>
process es</w>
pres er
power ed</w>
pla yers</w>
pla yer</w>
pen gu
ord nung</w>
o gen
mei ste</w>
ma m
la yer</w>
k üh
k la
je kt</w>
ic als</w>
hous es</w>
gesch lagen</w>
gem einen</w>
ge storben</w>
g old</w>
ft ing</w>
fre u
four th</w>
ex ter
di an</w>
convinc ed</w>
be tr
b iert</w>
b ic
aw ful</w>
artif icial</w>
arri ved</w>
an geneh
an ces</w>
ad ly</w>
Wel che</w>
Straß en
Si cht
Sch wan
S um
Pl att
M au
Kon sequ
Kno chen</w>
Imp f
Bri tain</w>
B atter
Über r
verbin det</w>
un gewöhn
tri ck</w>
the ore
studi eren</w>
spo ke</w>
sol ch</w>
sig ns</w>
sho es</w>
sh eit</w>
satelli te</w>
s elling</w>
rei sen</w>
reg ular</w>
pic ked</w>
mm a</w>
innov ative</w>
import ance</w>
grundle gende</w>
gi ft</w>
ga p</w>
fol ks</w>
essenti al</w>
er scheint</w>
ehr t</w>
dist inc
de aling</w>
cl ou
bo tt
an gesehen</w>
a war
Wahrneh mung</w>
Sch utz</w>
Prä sent
M ili
Fran k</w>
Ex ist
Er klärung</w>
Dien st
Deta ils</w>
D y
Best e</w>
Be weise</w>
Amaz on</w>
1 3
zu zu
zerstör en</w>
wor über</w>
wer ke</w>
ver stand</w>
u ch</w>
sy cho
sa ved</w>
s al</w>
re action</w>
produc tive</w>
perc ei
mo squ
man age</w>
mag ni
ma xim
kur zem</w>
ke eping</w>
k um
it z</w>
is sen</w>
ir t</w>
impro vis
im in
hr en
gew inn
ges p
er st
ensi onen</w>
dr ink</w>
des ert</w>
deep er</w>
dan ken</w>
da frika</w>
consi dered</w>
ci l</w>
chem istry</w>
ch ten
call ing</w>
bli o
be völk
astrop he</w>
analy sis</w>
anal ysi
an wenden</w>
an gel
am in
U -B
Schwier igkeiten</w>
S ili
S ein</w>
Ple ase</w>
Ox ford</w>
J emand</w>
Fak ten</w>
Emo tionen</w>
Deut schland</w>
Bes onder
B ron
Al terna
4 0
1 20</w>
Überr asch
wor ried</w>
vo ices</w>
tri p</w>
teu er</w>
ster y</w>
st y</w>
sour ces</w>
shar ks</w>
sen s</w>
sa d</w>
pro ve</w>
pi en</w>
ni ty</w>
mög lichkeiten</w>
mo tivi
ma ster</w>
m ur
long- term</w>
lie bt</w>
increas ing</w>
hea vy</w>
h ä
g ust</w>
for mer</w>
dr y</w>
cop y</w>
beschäf tigen</w>
b right</w>
b lieb</w>
auf gebaut</w>
and ing</w>
ak tivi
Tr äume</w>
R ec
Mar tin</w>
M ehr</w>
Lin ien</w>
In n
H äuser</w>
Brasili en</w>
Bau ern</w>
7 00</w>
' 9
är m
wonder ing</w>
vor aus
v able</w>
tum or</w>
stär k
stra te</w>
sen sor
sec tion</w>
sc ope</w>
ro t</w>
rel eas
persön lich</w>
p en</w>
n de</w>
mus cle</w>
lei ten</w>
k ungen</w>
k ts</w>
in dependent</w>
hei ßen</w>
h ou
g ay</w>
fäh igkeit</w>
feel ings</w>
eur s</w>
eu rop
erle i</w>
entdeck te</w>
eg ie</w>
dis ci
den falls</w>
clin ical</w>
biet et</w>
be ziehen</w>
T -
S W</w>
Pres ident</w>
Per sön
Mit arbeiter</w>
M ama</w>
L an
K lin
Fäl le</w>
Fol gen</w>
Er krank
C ould</w>
Bet t</w>
Ar men</w>
An wen
19 4
zerstör t</w>
vari ety</w>
utz ung</w>
tom orrow</w>
te eth</w>
sug gest</w>
stru ggle</w>
streng th</w>
qu es</w>
pro mo
pa thy</w>
olog ische</w>
notwen dig</w>
ne ath</w>
mus ici
meth od</w>
medizin ische</w>
mar riage</w>
lie fern</w>
k r
iz op
ier ter</w>
ha i</w>
f at</w>
exper ts</w>
eu er</w>
est abli
en jo
em bar
doc um
curi ous</w>
controll ed</w>
chem icals</w>
cap ture</w>
bir th
ben de</w>
am bi
ad ed</w>
ac cording</w>
a in</w>
X -
Vö gel</w>
Vor stell
Tran s
T rä
S ou
S eine</w>
Rät sel</w>
R ob
Onlin e-
Nachbar n</w>
N G
Maß stab</w>
K la
K ern</w>
J es
Hall o</w>
H i</w>
H en
G ü
Freund in</w>
Dre i</w>
D ay</w>
C re
An tar
y o</w>
wes entlich</w>
ti er</w>
stör ung</w>
stär ker</w>
studi o</w>
sh all</w>
schwar ze</w>
saf ety</w>
rel ative</w>
pres ident</w>
pre -
plat form</w>
p assen
o sity</w>
ni cht-
na tions</w>
la dy</w>
inter face</w>
glie der</w>
fac ing</w>
ex ec
evi l</w>
emo tion</w>
do ts</w>
des wegen</w>
cul tures</w>
credi t</w>
cl oud</w>
chimp anz
car rying</w>
brei tung</w>
bra te</w>
beobach tet</w>
be ar</w>
arti ge</w>
an nehmen</w>
Oper ation</w>
No t
M und</w>
Gewe be</w>
Ges ich
Flori da</w>
E ver
Bei m</w>
A B</w>
5 0
200 3</w>
ä den</w>
verfüg bar</w>
v ill
tz en</w>
t liche</w>
sy mp
st rei
st ab
schri ft</w>
rest aurant</w>
p tion</w>
lo ck</w>
it zen</w>
instr ument</w>
har d
ge wissen</w>
er mu
ell o</w>
br ü
blio the
bl auen</w>
auton om
ar d
adv anced</w>
Yor ker</w>
Verhäl tnis</w>
Te en
Qu elle</w>
N et
Medi en
Manhat tan</w>
Kul turen</w>
Elektri zität</w>
Dro gen</w>
C ri
B ush</w>
Any way</w>
An rei
8 5</w>
3 3</w>
west lichen</w>
viol ent</w>
ver mitteln</w>
valu able</w>
under neath</w>
tru g</w>
trans formation</w>
to ber</w>
si des</w>
sch en
rough ly</w>
requ ires</w>
re agi
os aur
lan ger</w>
l ös
komplex e</w>
kan nte</w>
j ähr
i den
hur t</w>
ha m
fa il</w>
exist ence</w>
er wei
er setzen</w>
disci pl
cra ft</w>
cli ck</w>
an -
ag s</w>
ag gres
addi tion</w>
Z itat</w>
Vor fahren</w>
Vir en</w>
Temper atur</w>
Strat egie</w>
Po tenti
P eter</w>
L at
H eu
Gebur t
F est
Er war
Entwicklungs ländern</w>
Berei chen</w>
A stron
über prü
z hei
um m
trin ken</w>
tri als</w>
top s</w>
speci fically</w>
reg ul
reas on
re fu
proper ties</w>
possi bilities</w>
nütz lich</w>
my steri
lang fri
hi stic
ge beten</w>
fl üs
erwäh nt</w>
dre w</w>
defin itely</w>
bro ke</w>
bau te</w>
batter y</w>
ari o</w>
acc ept</w>
W ill</w>
Stu fe</w>
Sch n
Sch lei
R ücken</w>
R et
Ne ben
Mex iko</w>
Mar kt
M aus</w>
L y
Kl ein
In sel</w>
In halt</w>
Hy po
Ges i
Fe bru
F leisch</w>
Der ek</w>
Bü ro
Berei che</w>
Be dro
Aus maß</w>
Architek ten</w>
äl t</w>
zü glich</w>
wach st
w ings</w>
vulner able</w>
vor ne</w>
versor gung</w>
to cin</w>
t lichen</w>
spra che</w>
spr ung</w>
set ting</w>
sen de</w>
sa tis
s ingen</w>
qu asi</w>
por tra
müs sten</w>
mi x</w>
mi le</w>
le m</w>
l eng
is ol
intellec tual</w>
inspiri ert</w>
g eist
fur cht
fri end
fin anz
fe wer</w>
exer cise</w>
et ings</w>
erkan nt</w>
effec tively</w>
defin ed</w>
de x</w>
cor ruption</w>
ch est
berei ch</w>
bel e
beein druck
all en
al it
Z immer</w>
W ill
Um feld</w>
Tex t</w>
Situ ationen</w>
S ogar</w>
Ri es
P M</w>
Neu es</w>
Ker l</w>
Charak ter</w>
Br un
Aus wah
3 ,000</w>
Ä gyp
zei gten</w>
ver teilt</w>
ver ein
u me</w>
t tern</w>
t oll
sto ck</w>
st ent</w>
sop histic
si g</w>
sh or
setz ten</w>
sei tdem</w>
s outh</w>
s ons</w>
s ets</w>
ri x</w>
radi k
prepar ed</w>
p hab
osaur s</w>
net t</w>
inn ing</w>
hosp it
hin ten</w>
gh t
gegen wär
enor me</w>
conv ince</w>
co al</w>
aufzu bauen</w>
ar do</w>
ang le</w>
a p</w>
T om
Sicher heits
S qu
S how</w>
Hei m
Fahr ra
übri g</w>
wei le</w>
v ember</w>
u a</w>
tr aut</w>
te ure</w>
stu pid</w>
ste el</w>
statt dessen</w>
si ght</w>
resour ce</w>
po st</w>
pl ate</w>
persön lichen</w>
life time</w>
lan den</w>
intelli gen
in k
ie f</w>
i P
hi e
h all
gra phic</w>
ges und</w>
fra me</w>
fest stellen</w>
ex change</w>
en cing</w>
dou ble</w>
dig lich</w>
charac ters</w>
c er</w>
c ameras</w>
bre ath</w>
be stand</w>
auf s</w>
an ger</w>
al em</w>
Zw eck</w>
Tr au
Telef on
St ör
P aci
Nor mal
M obil
G utes</w>
F al
Dam als</w>
C u
B ob</w>
Al zhei
z a</w>
wh enever</w>
tren nt</w>
ti erte</w>
though ts</w>
st ige</w>
situ ations</w>
shar k</w>
ser ved</w>
sensi tive</w>
sen ding</w>
schle chten</w>
ro of</w>
repres ents</w>
rel atively</w>
po etry</w>
pe t</w>
or ary</w>
messa ges</w>
lok alen</w>
loc ation</w>
kompliz iert</w>
i -
her s</w>
ha fte</w>
grupp e</w>
gre en
gr ös
fin ish</w>
feh l
fahr t</w>
ent stand</w>
co ast</w>
bra ch</w>
b lichkeit</w>
ar ts</w>
ar ab
appropri ate</w>
an ges
an en</w>
al ed</w>
ad ded</w>
ac tor</w>
a he</w>
W aff
Un gleich
Ph il
Gesprä ch</w>
Gen om</w>
Galax ie</w>
Cam bridge</w>
B I</w>
Ar ch
An wendung</w>
Ab schluss</w>
A bl
z ös
ven ue</w>
unter sucht</w>
un abhängig</w>
ri de</w>
revol ution
pri mi
o li
nor th</w>
moder ne</w>
mensch licher</w>
ma ps</w>
li ver</w>
l ay</w>
k tes</w>
fol gende</w>
fel low</w>
f ted</w>
ex act</w>
est im
er stellt</w>
en h
emerg ing</w>
elek tron
dunk le</w>
digit alen</w>
di ert</w>
collec tion</w>
car efully</w>
blo cks</w>
ben e</w>
behavi ors</w>
be e</w>
at oren</w>
ar gu
Zuschau er</w>
Zivili sation</w>
T eu
Str ess</w>
Lit er
Lei st
L asst</w>
Kor ruption</w>
J a
Hig h</w>
Ge gend</w>
Feu er
Erinner ungen</w>
E d
Be weis</w>
Austr alien</w>
Ar me
wis senschaften</w>
wel chem</w>
w ra
victi ms</w>
ver steht</w>
ve get
unterstütz t</w>
terror ism</w>
t nisse</w>
su gar</w>
sol cher</w>
so viel</w>
poin ted</w>
ph an
persön liche</w>
pa y
olog ischen</w>
no se</w>
ma kers</w>
län der</w>
it ting</w>
interest s</w>
in ev
il fe</w>
han den</w>
grün den</w>
ge omet
flu or
fantast isch</w>
evolution ary</w>
er gibt</w>
el imin
eco system</w>
e ter
e es</w>
durchschnitt liche</w>
cre te</w>
bo ttle</w>
beg ri
auf nehmen</w>
au rants</w>
ander th
Ver besser
Ther ap
S ex
R hyth
Medikam ent</w>
Lei der</w>
Leben ser
L eh
L a</w>
Kom ment
K ab
J im</w>
Führ ungs
Ex tre
Ein heit</w>
5 .000</w>
än e</w>
z ir
vil le</w>
unterschie dlich</w>
tu s</w>
transpar ent</w>
te sted</w>
t w
sätz e</w>
recor ded</w>
re alen</w>
rais ing</w>
ra ti
r are</w>
opp ing</w>
oc cas
no on</w>
na vi
mov ements</w>
mathema tical</w>
mal aria</w>
le diglich</w>
k le
j unger</w>
internation alen</w>
hei sst</w>
ger ufen</w>
fü gt</w>
eu r</w>
enti ert</w>
employe es</w>
der er</w>
dar stellen</w>
d on</w>
d le</w>
bu ying</w>
beinhal tet</w>
aff ected</w>
U. N
Stra h
Satur n</w>
Ris iken</w>
Potenti al</w>
P as
L ad
Her r
Groß mutter</w>
G ates</w>
Ech tz
Dro gen
C A
Boo t</w>
Ber g</w>
über winden</w>
äus ern</w>
äus ch</w>
zugän glich</w>
vor handen</w>
us er</w>
un it</w>
sti ken</w>
stan z</w>
st iz
spru ch</w>
sor g
schle chter</w>
ro ads</w>
requ ire</w>
rel ease</w>
rat s</w>
rapi dly</w>
r i</w>
r as
pro j
politici ans</w>
pla ys</w>
pan ts</w>
m on</w>
inten si
i tionen</w>
hydro gen</w>
hier her</w>
gri d</w>
g ö
epidem ic</w>
dep ends</w>
c ure</w>
c s</w>
besu chen</w>
be weisen</w>
aufre gend</w>
arti g</w>
Wü ste</w>
Vol k</w>
V og
Unterneh mer</w>
St au
Spra ch
Sp re
Sch reib
S han
S E
Res pe
Konfli kt</w>
K B</w>
Hom o</w>
Her ren</w>
Gr ü
G DP</w>
Brü cke</w>
B lin
A kti
äuß erst</w>
wär mung</w>
wirk liche</w>
w l</w>
vermei den</w>
ver stehe</w>
ur ban
tu be</w>
the -
str ated</w>
st ir
st able</w>
spec trum</w>
sol ved</w>
schau ten</w>
re ti
re main</w>
radi ation</w>
qu an
pleas ure</w>
molec ular</w>
mis s</w>
mir ror</w>
k s
introduc ed</w>
imm t</w>
hi de</w>
health care</w>
h na
gri ffen</w>
gesell schaft
gefäl lt</w>
flä chen</w>
erstaun liche</w>
ent sch
emis sions</w>
el ement</w>
el em
effek tiv</w>
di plom
dan k
d ank</w>
bub ble</w>
ber eiten</w>
be u
at oms</w>
an ische</w>
Wil d
Wes entlichen</w>
W om
The ater</w>
T anz
Stär ke</w>
Sch ö
Paci fic</w>
Nie der
Mal aria</w>
I ni
HI V-
Gem äl
G ehen</w>
F unk
F ing
Dim ensionen</w>
Dep ression</w>
De bat
Dan ach</w>
B and
ä st
zäh lt</w>
wei t
verbess ert</w>
tion ary</w>
ti stiken</w>
su chten</w>
schreck lich</w>
ris ks</w>
re place</w>
primar y</w>
previ ous</w>
organ s</w>
op tion</w>
op en-
no tes</w>
mm ing</w>
mis s
m ern</w>
kar te</w>
in sur
i x</w>
i est</w>
gli ed</w>
ger ichtet</w>
gener ally</w>
gegensei tig</w>
fis hing</w>
er ende</w>
ent y</w>
eng aged</w>
ek ul
deta ils</w>
ci p
boun dar
bom b</w>
bekan nte</w>
bein ahe</w>
anc en</w>
al og</w>
ac adem
U. K.</w>
T ali
Stro m
M ur
Kombin ation</w>
Jes us</w>
He alth</w>
H ollywood</w>
For m
Fl üs
Diagra mm</w>
Des wegen</w>
Chri sti
Bedürf nisse</w>
B la
Aktiv itäten</w>
A ben
ö k
wirk lichen</w>
w unden</w>
vor zustellen</w>
ver br
typic ally</w>
trilli on</w>
ta ste</w>
ta pe</w>
st in</w>
st ac
se es</w>
re stri
re fle
r uns</w>
psych ology</w>
prot ected</w>
p ack</w>
men tion</w>
mein te</w>
lich ste</w>
le gte</w>
krei eren</w>
intro duce</w>
ig ar
hon or</w>
ho l</w>
h ey</w>
gra vity</w>
go ods</w>
gesch ä
gen ü
ge ber</w>
fl at</w>
f ischen</w>
expres s</w>
disc ussion</w>
des ire</w>
correc t</w>
blau e</w>
ba i</w>
b age</w>
alle l</w>
Wohl stand</w>
U.N .</w>
Sü den</w>
R and</w>
Ph ase</w>
Pf und</w>
Nach hal
N u
Kon zep
Kon su
Kaff ee</w>
Ini ti
Grund lage</w>
Ger e
Erfin dung</w>
Disk ussion</w>
Dinosau rier</w>
D utz
Buchst aben</w>
Bu ch
B in
Aut om
Ara b</w>
An teil</w>
' 8
zent rum</w>
win ter</w>
verk auf
ver blü
tradi tion</w>
ti sches</w>
tel ef
se y</w>
sc ore</w>
sa tions</w>
re ward</w>
pro p
po st-
on ic</w>
newsp aper</w>
kon fron
kl ar
k ün
je wei
inven tion</w>
hol fen</w>
gere gt</w>
ger ung</w>
gele bt</w>
ge gründet</w>
fres h</w>
f au
erhö hen</w>
environ ments</w>
en g</w>
en a</w>
di et</w>
de h
cle ver</w>
chti ge</w>
bekan n
b end</w>
ar me</w>
ar ma
am on
ak u
Webs eite</w>
We ch
T as
Sta tistiken</w>
Sk la
Sch ließ
Sch ick
S S</w>
Ri o</w>
Progra mme</w>
Pap ier
Lap top</w>
Kamp agne</w>
Isra el
I ran
Gem ü
Geheim nis</w>
G ore</w>
Fol ie</w>
Defin ition</w>
A spek
über nehmen</w>
xi de</w>
wen det</w>
vor bei
vi l</w>
ver größ
ver ab
vehic les</w>
ti smus</w>
technolog ical</w>
techni ques</w>
tain ment</w>
sto ffen</w>
st yle</w>
sing ing</w>
sei d</w>
ru b
ra cy</w>
plan es</w>
perc eption</w>
para dig
n etz
mist ake</w>
met al</w>
la chen</w>
ktion s
k ung</w>
inte gra
hei rat
gemein same</w>
gel ei
funktion ierte</w>
er neu
entfer nen</w>
eindeu tig</w>
ei en</w>
effici ency</w>
dro pped</w>
din osaurs</w>
corpor ate</w>
combin ation</w>
cen ters</w>
bi zar
bes agt</w>
awar eness</w>
ar ity</w>
app lied</w>
an i</w>
We b
W äl
Russi a</w>
Metap her</w>
M ak
Kir che</w>
K reis</w>
Jo e</w>
Inter national</w>
Gl as</w>
G old</w>
F lie
B en</w>
21 st</w>
war s</w>
veränder te</w>
versch m
ver traut</w>
ver ring
ver mögen</w>
ver dam
v in
v eau</w>
the me</w>
ter weise</w>
tat säch
str ö
schla fen</w>
s ample</w>
re min
prot ection</w>
process ing</w>
perc ent
per form</w>
par allel</w>
occur red</w>
men ten</w>
magne tic</w>
ma ker</w>
m end</w>
kehr t</w>
k ni
iz ing</w>
grü nen</w>
großarti gen</w>
geb or
fo undation</w>
faszin iert</w>
fac tors</w>
fac tor</w>
es cap
er enden</w>
en ab
ell en
ein gesch
diesel ben</w>
de v
coun ter</w>
compon ents</w>
bemer ken</w>
be züglich</w>
ba g</w>
ati c</w>
algorith ms</w>
ad minist
Wei hna
W ort
Sü dafrika</w>
Schri tte</w>
Plast ik
Mom ente</w>
Mar k</w>
M ulti
I mm
Gesundheits wesen</w>
G and
Fil m
F ün
Ein en</w>
D s</w>
D ach</w>
Bi bliothe
Auf nahme</w>
Alzhei mer</w>
19 3
worl ds</w>
wi re</w>
wer k
weiter er</w>
w ine</w>
un ken</w>
top ic</w>
th es</w>
sk ill</w>
sen ses</w>
schau e</w>
schaft s
sch we
sat z
sa v
pul led</w>
prac tical</w>
or gan</w>
oc c
neighb ors</w>
moun tains</w>
mi ra
ment ed</w>
less ons</w>
leben den</w>
l ag
kl ei
izop hren
is s
in her
hop ing</w>
ho wever</w>
her o</w>
fra g
fossi l</w>
f ts</w>
es h</w>
erwei tern</w>
e w
dis aster</w>
cr ash</w>
c utting</w>
c amp</w>
bur n</w>
bre ch
b ür
att dessen</w>
ange l</w>
amo unts</w>
Wür de</w>
Wirk lich</w>
Vort eile</w>
Tel es
Sy mmet
Stu hl</w>
St attdessen</w>
S and</w>
Pl at
Oze ane</w>
O b</w>
M erk
M ac
L ab
Kü ste</w>
Ken ia</w>
In spi
Ho ward</w>
Hel den</w>
Gre en
F ri
D amen</w>
will st</w>
wei ßen</w>
ver gan
ut ze</w>
ulti mate</w>
tran sition</w>
tra fen</w>
ti le</w>
t äu
t ings</w>
supp or
sp ät</w>
sp rü
sm ile</w>
schrei bt</w>
reach ed</w>
qu id</w>
qu alität</w>
pro bieren</w>
pla y
mi d
mer ken</w>
mei ster</w>
lo gic</w>
ler weile</w>
lek tu
kri min
kra ft
kit chen</w>
j um
inte gr
inclu de</w>
imp le
hin zu</w>
go als</w>
glaub te</w>
ggl ing</w>
ge braucht</w>
fro h</w>
er hielt</w>
do gs</w>
den e</w>
de struction</w>
collabor ation</w>
c ed
bur ning</w>
br a</w>
ans wer
am ed</w>
al ter
akzep tieren</w>
ag ina</w>
afrikan ischen</w>
Zau ber
Y et</w>
W en
Vor aus
Sin ce</w>
Sign ale</w>
Ri chtig</w>
Re chte</w>
M A</w>
Krie gs
K le
Interak tion</w>
I g
H andel</w>
Ger äusch</w>
Geb iete</w>
F ok
Ein stellung</w>
Chemik alien</w>
B I
Afri kas</w>
Ach se</w>
19 60</w>
zieh ung</w>
zah l
world wide</w>
ver wir
typ en</w>
travel ing</w>
tra ge
st au
sp ie
sho ot</w>
schlu g</w>
ran g</w>
r ors</w>
p ure</w>
ograph y</w>
occ ur</w>
natur ally</w>
mo tor
mit h</w>
mist akes</w>
medi um</w>
man chen</w>
m alen</w>
lau gh</w>
ke eps</w>
k toren</w>
inf ected</w>
h its</w>
gem essen</w>
ge tragen</w>
g ere</w>
fig ures</w>
feh lt</w>
fe atures</w>
esti mate</w>
esc ope</w>
dis h</w>
digit ale</w>
de dic
dau erte</w>
dar gestellt</w>
da hinter</w>
consu mer</w>
com pla
birth day</w>
beispiel sweise</w>
ax is</w>
automati sch</w>
an sieht</w>
activi ties</w>
ac compli
Vor her
Ti me</w>
Sta tist
Sk el
RI S
No body</w>
Men gen</w>
Le on
L ong</w>
Kur s</w>
J on
G ul
Fran ce</w>
Dar um</w>
D .
Car ol
Bli ck
Ä hn
z eln</w>
wi ch</w>
w üs
verwand elt</w>
v o</w>
v as
unter en</w>
un usual</w>
tra cking</w>
tic a</w>
su per</w>
sophistic ated</w>
so was</w>
so -
si chtig</w>
schwier iger</w>
schein bar</w>
re tro
re co
quan tum</w>
pp y</w>
pol y
ph ase</w>
pe ak</w>
par ent</w>
ob ald</w>
mem ories</w>
mei st</w>
m ischen</w>
la unch</w>
jen er</w>
internation ale</w>
ing re
in ts</w>
hr ase</w>
ger ei
geh end</w>
gebro chen</w>
ge fangen</w>
g ünst
g ert</w>
flo wers</w>
fi ve-
f assung</w>
enter ed</w>
eg gs</w>
dra g
disc us
dar unter</w>
confi dence</w>
comp uting</w>
ch ert</w>
c ross</w>
c ast</w>
c ally</w>
bo den</w>
blo g</w>
bi ke</w>
bi gen</w>
bewe gung</w>
besit zt</w>
b eln</w>
auf gewachsen</w>
au en
air s</w>
a pe
Zun ächst</w>
Z ur
Wirk ung</w>
W ann</w>
Ver ein
S obald</w>
R en
Präsent ation</w>
N äch
Mar y</w>
Lö cher</w>
Le ktion</w>
Kre di
K lang</w>
Interess an
Ge däch
Cent ral</w>
C li
ähn lichen</w>
unglaub lichen</w>
un ver
ul en</w>
u cht</w>
th anks</w>
star tet</w>
st ischen</w>
sim pl
sel s</w>
rat or</w>
pro gres
pre gn
pre dat
pi ano</w>
photograph s</w>
organis ieren</w>
opin ion</w>
o f-
n den</w>
mark eting</w>
mani pul
k let
ill ness</w>
ic a</w>
hi gen</w>
fi f
exist ing</w>
enth ält</w>
encoura ge</w>
defin i
coo king</w>
ch urch</w>
ch tern</w>
ch icken</w>
besch rieben</w>
b attle</w>
ati n</w>
after noon</w>
Win d
Wettbewer b</w>
Tradi tion</w>
Tali ban</w>
T onnen</w>
Stad t
St ücke</w>
Sk ulp
Sig nal</w>
R B</w>
Mehr heit</w>
M er
Kan ada</w>
K üh
Innov ationen</w>
Hin der
Fortschri tte</w>
F ast</w>
Con gress</w>
B rie
B M</w>
Aut or
10 -
Ö kon
wo für</w>
ver brauch</w>
un ru
um geben</w>
strat egi
str ing</w>
sta ff</w>
st ics</w>
sol ving</w>
sil ence</w>
schwar zen</w>
schl üs
pu tation</w>
person ally</w>
narra tive</w>
mus ical</w>
multi -
moral ische</w>
meaning ful</w>
manufac turing</w>
jo ke</w>
inter view</w>
inter ven
ici de</w>
i onen</w>
gesch ni
fra me
for mt</w>
exp an
enor m</w>
en er</w>
el ev
crow d</w>
co ordin
cl ing</w>
ch ec
bur gh</w>
bli cken</w>
best ä
bal lo
att ac
ap art
antwor tet</w>
an genommen</w>
an fing</w>
ac tors</w>
a c</w>
Ver g
T ä
Se ele</w>
Sch atten</w>
S ho
Re chts
Mili tä
Ju gend
Instr ument</w>
Hol z
Gra fik</w>
Gegen wart</w>
Ele fan
Eig ent
Durch schnitt</w>
Di agno
CO 2-
Ab sicht</w>
3 .
war f</w>
transp ort</w>
tion ing</w>
sup pose</w>
stand ards</w>
scar ed</w>
sc op
rel ate</w>
rei che</w>
recor ds</w>
re par
re ment</w>
ra dical</w>
r ass
qu iet</w>
psych ological</w>
prot eins</w>
pres entation</w>
ph arma
per forming</w>
particip ate</w>
p ie</w>
o ting</w>
nie der
ner ship</w>
multi p
mil k</w>
mi th
mat es</w>
m ikro
ler in</w>
kl u
k lo
is s</w>
in al</w>
hin aus
ha ften</w>
h ome
grund sätzlich</w>
gesch aut</w>
fundament ally</w>
fal schen</w>
europ ä
er weiter
enth alten</w>
dri ves</w>
di agra
d ul
cli p</w>
ch ap
brea king</w>
beri chten</w>
ancest ors</w>
Zent r
Z y
Unter haltung</w>
S z
S us
S MS</w>
Russ land</w>
Regier ungs
Quad rat
Per haps</w>
P arti
On ly</w>
O hne</w>
N el
Musli m</w>
Mis s
Kor an</w>
Jahrzeh nten</w>
Jahrzeh nt</w>
In ner
I ll
Glob al</w>
Gi bt</w>
Gesich ter</w>
Exist enz</w>
Erd be
E li
Da zu</w>
C lu
B all</w>
A M</w>
20 -
1 .000</w>
00 0-
wei st</w>
we ak</w>
verk nü
ul a</w>
transpor tation</w>
ti gten</w>
tal e</w>
sa chen</w>
res ili
requ ired</w>
re d
poll ution</w>
perfe kte</w>
percent age</w>
on er</w>
o sexu
no where</w>
no w
n or</w>
mensch liches</w>
mechan ism</w>
ma d</w>
le be</w>
in struc
i sten</w>
hor se</w>
gemein samen</w>
fest yle</w>
esc ent</w>
dra matic</w>
dou bt</w>
des k</w>
democra tic</w>
co w</w>
circum stances</w>
bor ing</w>
bevölk erung</w>
bemer kte</w>
bei bringen</w>
be komme</w>
ar m
an ia</w>
all -
W är
Vog el
Verl ust</w>
Tum or</w>
T ru
Stu dent</w>
Schlüs sel
S mith</w>
Resul tat</w>
Rest aurant</w>
Respe kt</w>
R äume</w>
Pri m
Nutz ung</w>
N ase</w>
Mo tiv
M ill
H ouse</w>
G arten</w>
Flü cht
Erei gnis</w>
E ric</w>
D ig
D au
Cha os</w>
C i
B ein</w>
A bra
über legen</w>
zwei mal</w>
zusammen zu
wei ße</w>
vol ume</w>
unter richten</w>
ton ight</w>
te e</w>
spezi ellen</w>
sou l</w>
selt sam</w>
ro cket</w>
ri en</w>
rel i
refu ge
pri me</w>
po und</w>
out come</w>
ori ties</w>
mi d-
liter ature</w>
lap top</w>
inst itution</w>
increas ed</w>
hi p</w>
her vor</w>
gu ar
gra in</w>
gl ad
gest eu
ge teilt</w>
fü ll
fol genden</w>
fis her
fil ms</w>
expla ined</w>
ex hibi
ent ary</w>
dom est
di ger</w>
det ect</w>
cre ature</w>
consi der
com fort</w>
c at</w>
bo ok
besch rän
behaup ten</w>
b ungen</w>
at men</w>
as pect</w>
an ony
accu rate</w>
Zei tung</w>
Whi le</w>
Ver wand
Untersu chung</w>
S ec
N ah
Mü ll</w>
Mär kte</w>
M ut</w>
Lin col
Kontin ent</w>
Geräu sche</w>
F und
F ive</w>
Ch il
C lin
Bro o
überrasch end</w>
ö s</w>
zi p
wis st</w>
vie wer</w>
ut t</w>
un abhän
tro ck
teil weise</w>
sustain ability</w>
sun light</w>
stre t
stat ement</w>
star ken</w>
sol ange</w>
sil k</w>
schri ften</w>
schn ell
sch utz
s a</w>
ri tu
releas ed</w>
re mind</w>
provi ding</w>
pri m
pres ence</w>
physic ally</w>
p rei
or ing</w>
nov el</w>
nation ale</w>
mar ine</w>
lä tze</w>
lie bte</w>
li chte</w>
leist ungen</w>
lar gely</w>
interessan ter</w>
gros se</w>
ge holfen</w>
fäl len</w>
fle w</w>
f ed</w>
er ungen</w>
entrepren eurs</w>
electron ic</w>
elec tion</w>
e sten</w>
durch führen</w>
dis play</w>
dep lo
concl usion</w>
com bine</w>
ci ous</w>
c .</w>
bü cher</w>
ash ed</w>
applic ations</w>
antwor tete</w>
abstra ct</w>
Vor stellungen</w>
Versu che</w>
Un fortunately</w>
Tra in
R ab
Nel son</w>
N ull
Lebens mittel</w>
Ho tel</w>
H unger</w>
H er</w>
For d</w>
F liegen</w>
Dar stellung</w>
Da für</w>
Bun des
Billi onen</w>
200 2</w>
20 11</w>
ück sichti
yra mi
wri ter</w>
wh ales</w>
war tet</w>
ver steckt</w>
v a
tane ously</w>
ta gs</w>
son gs</w>
sogenan nte</w>
sec ure</w>
ri eren</w>
potenti ally</w>
po p</w>
part ners</w>
m and
li quid</w>
leng th</w>
kontrolli ert</w>
k ins</w>
j ective</w>
in di
ide al</w>
hospit als</w>
ho tel</w>
her an
fortun ate</w>
ff s</w>
fall ing</w>
fal se</w>
fa ke</w>
explor ation</w>
en en
en able</w>
el ed</w>
einig es</w>
einfa ch
ef s</w>
ear th
e wi
e o
dr ücke</w>
const ant</w>
con crete</w>
collec ted</w>
co sm
c us</w>
bur g</w>
bu cks</w>
br ut
bic y
besser es</w>
besch rei
be treiben</w>
at en
as ed</w>
ap pl
an hand</w>
adver ti
ad vice</w>
V oll
Sy mp
Sp iegel</w>
Sp ace</w>
Some thing</w>
Shan g
R ou
O hren</w>
Molekü l</w>
Mo un
Mag ie</w>
Li ber
K ameras</w>
Größ en
Gemein schaften</w>
G ute</w>
G ir
Erleb nis</w>
E hem
C .</w>
Best and
Ar me</w>
An statt</w>
A stero
Ä ra</w>
y al</w>
wün schte</w>
wh el
vill ages</w>
viel es</w>
um s
to y</w>
three- dimensional</w>
technolog ie</w>
symp tom
surro unded</w>
sub jects</w>
su che</w>
star ben</w>
sprech end</w>
ri dic
r ough</w>
pl ans</w>
par aly
organ ism</w>
or a</w>
nach gedacht</w>
min d
mem ber
medizin ischen</w>
ma il</w>
lö st</w>
lok ale</w>
lei stung</w>
l ers</w>
konzentri ert</w>
komplex en</w>
kl asse</w>
inspi ration</w>
in sp
ho ben</w>
gentle men</w>
fing ers</w>
fe eding</w>
faszin ierend</w>
explan ation</w>
em pathy</w>
em in
don es
dar k
cur ve</w>
collap se</w>
clo sely</w>
c ue</w>
blo ck
be trieben</w>
be hör
b ones</w>
ali ties</w>
ah n</w>
Wel ten</w>
Ver b
Unterneh men
Terror ismus</w>
Tal ks</w>
Stat us</w>
Schließ lich</w>
Sch le
S l
Op tim
John son</w>
J une</w>
Hig gs</w>
Gere chtigkeit</w>
G en</w>
Frie den
E C
Dy nam
D A</w>
Col a</w>
Bron x</w>
Bri an</w>
Bev or</w>
Be wer
Aus stellung</w>
0 ,
ä ger</w>
Über leben</w>
zusammen arbeiten</w>
woh n
wal ks</w>
versch wunden</w>
tä glichen</w>
tr at</w>
ti ous</w>
tenzi al</w>
sel ts
sch wa
ro o
rel ation</w>
pa pers</w>
ner vö
mon key</w>
instr uments</w>
h ü
gi eri
gar den</w>
g s-
g elt</w>
g ation</w>
g am
func tions</w>
exp and</w>
econom ists</w>
dig es</w>
decl ine</w>
dea ths</w>
dar stellt</w>
continu ed</w>
combin ed</w>
co ck
ch ose</w>
bo w</w>
bil det</w>
bes i
be zeichnen</w>
att acks</w>
at er
allo wing</w>
al u
a y
Wom an</w>
Win ter</w>
Vorstell ungskraft</w>
Ver breitung</w>
Stamm zellen</w>
St ar</w>
St and</w>
Re gen</w>
Qu ellen</w>
Op en</w>
Musik er</w>
Mo sk
M em
Hei mat
Go ttes</w>
G eist
Fo togra
F ru
E mis
C ro
Bl ät
Ban glad
Auf nahmen</w>
4 8</w>
3 ,
20 50</w>
wes halb</w>
wand eln</w>
wachst um</w>
vor bereitet</w>
vi erte</w>
ver glichen</w>
us -
under water</w>
surge on</w>
stron ger</w>
stor y
some what</w>
sin ni
sha me</w>
schein end</w>
re ference</w>
posi tiv</w>
poll en</w>
over whel
o th</w>
nom men</w>
lin ked</w>
lang samer</w>
idem ie</w>
hum or</w>
horri ble</w>
gi ogen
gesam t</w>
genü gend</w>
gener ated</w>
gel ie
gek auft</w>
ge worfen</w>
g al
fre ie</w>
er ei</w>
embar rass
do kum
dep en
cor n</w>
co -
clou ds</w>
clo thes</w>
bo xes</w>
bi om
be weg
aus einander</w>
at ers</w>
an schaut</w>
Zu fall</w>
Wer k</w>
U l
Squ are</w>
Res er
Regi onen</w>
Radi o</w>
R ed</w>
Prinzi pien</w>
Po si
O K.</w>
M utter
M ig
M am
Lincol n</w>
Le vel</w>
Kapit el</w>
H at</w>
Gesch enk</w>
Ger ü
Ger man</w>
Gen au
Gemäl de</w>
F ur
Ereig nisse</w>
Er st</w>
Entfer nung</w>
Eff ek
DN A-
D ör
D ou
B au</w>
Aus sage</w>
Au ff
9 /
5 5</w>
10 0.000</w>
wissenscha ft</w>
wenig stens</w>
welt weiten</w>
w ol
un mittel
th um
st ag
sp lit</w>
soli d</w>
sha ped</w>
ser ving</w>
se -
schlie ßt</w>
schl ag
sch wan
ro ots</w>
re ten</w>
re l</w>
re fer
r on</w>
r ated</w>
provi ded</w>
pedi tion</w>
p sycho
on al</w>
o ta</w>
ma mm
komple x</w>
kol lek
ken nen
ist isch</w>
inc enti
grü ne</w>
glück licherweise</w>
gene tische</w>
frame work</w>
fo k
f und</w>
f at
ey n
ev ening</w>
et tet</w>
ehr en</w>
e ball</w>
dru ckt</w>
do se</w>
do ors</w>
der selben</w>
depen dence</w>
defin iert</w>
conven tional</w>
conserv ation</w>
challen ging</w>
ch ester</w>
but ton</w>
bri cht</w>
au spro
ac ted</w>
Wör ter
Whi te</w>
Tag es
Sili con</w>
Sch ätz
Sch li
S inn
Res ear
Prot eine</w>
P ort
L ou
Köni g</w>
Kur ve</w>
Kra ft
Klei dung</w>
Kat eg
Jahrzeh nte</w>
Inspi ration</w>
Gro ße</w>
Fak tor</w>
Del hi</w>
D oll
D ad
Compu tern</w>
Christ mas</w>
Bl att</w>
Arbei ter</w>
Alex ander</w>
Ab sol
z ig
y ard</w>
wür dig</w>
wir ft</w>
whe el</w>
wa i
voll stän
un known</w>
ul tra
taus enden</w>
sta yed</w>
selbst verständlich</w>
res pe
rema ins</w>
pri ze</w>
perman ent</w>
or ange</w>
n est</w>
meas ured</w>
lo sigkeit</w>
lin ear</w>
labor atory</w>
l ass</w>
kosten los</w>
k räfte</w>
k ein
j ung
irgend eine</w>
in ti
hei m</w>
hand le</w>
gri ffe</w>
g ut
für s</w>
fund ing</w>
func tional</w>
fu hren</w>
fahr er</w>
er ter</w>
er ror</w>
einfa ches</w>
dr ingen</w>
direc tor</w>
di r
desig ns</w>
conven i
ca ve</w>
brei te</w>
bin den</w>
bes essen</w>
b un
b ie</w>
archit ect</w>
ap es</w>
Tran spar
Shang hai</w>
Schick sal</w>
Sch alt
Ries en
R N
Ni cht-
Konsequ enzen</w>
K lu
Hen ry</w>
H an
Gesam t
G am
F BI</w>
Di plom
Det ro
Debat te</w>
Bas ically</w>
Arme e</w>
Ac t</w>
Ab out</w>
5 0,000</w>
3 0
20 12</w>
1 000</w>
ön t
Öko system</w>
zufrie den</w>
zo om</w>
ziel en</w>
wor an</w>
wonder ed</w>
woh er</w>
wh ist
von einander</w>
ver lan
uri es</w>
un gen
trans formed</w>
ti erten</w>
tele phone</w>
t to</w>
sk ep
ri ce</w>
resol ution</w>
re move</w>
re a
rand om
passi onate</w>
obs essed</w>
ne ut</w>
ne ar
mod ell</w>
ma tically</w>
lei hen</w>
lei chter</w>
l ens</w>
insi ght</w>
hie ß</w>
her o
hei len</w>
fil m
f liegt</w>
des per
den se</w>
de cre
dam erika</w>
clim b</w>
ch art</w>
camp us</w>
bor der</w>
biolog ische</w>
beteili gt</w>
besor gt</w>
auth ority</w>
au tism</w>
attemp t</w>
ad mit</w>
Wil len</w>
W all</w>
Ver brechen</w>
U. S</w>
Te ams</w>
Säu ge
Studi o</w>
St äm
Schu ld</w>
Ri ver</w>
P r
N ic
Militä r</w>
Lebenser war
L abor
L .
Krie ges</w>
Kli ma</w>
Instr umente</w>
Hand ys</w>
Geburt stag</w>
G as</w>
Flä che</w>
F eyn
Ep idemie</w>
Chem ie</w>
Ch ancen</w>
An nahme</w>
An führer</w>
Algorith men</w>
über qu
Ä l
wor ker</w>
wor auf</w>
wo von</w>
wei ßt</w>
wat er
w r
versor gen</w>
vacc ine</w>
us sen
ussen dlich</w>
un like</w>
umzu gehen</w>
tt eln</w>
tr on</w>
tou ched</w>
techni que</w>
stopp en</w>
spiri tu
sens ors</w>
seh t</w>
se ason</w>
schwi mmen</w>
regi ons</w>
pos es</w>
our ce</w>
op tions</w>
ol umin
off enen</w>
nach ts</w>
mo bili
met abo
men ge</w>
lau ghter</w>
kü ste</w>
kultur elle</w>
kti eren</w>
intel lektu
h en
gr ab
gi k</w>
gi er</w>
genie ßen</w>
gen o
gen heiten</w>
gelan gt</w>
gar ten</w>
fin ance</w>
fac ed</w>
f rank
eri kas</w>
elektr ische</w>
ei ling</w>
ec ke</w>
dan ger</w>
c ents</w>
auf geregt</w>
arti gen</w>
ar ran
a tically</w>
a ks</w>
We gen</w>
Tie f
Schwe den</w>
S ir</w>
Rem ember</w>
Par k
Mü ll
Mon ter
Mo tor</w>
Mand ela</w>
J H</w>
In dones
Hunder te</w>
H üh
Gr as</w>
Frank reich</w>
Ex plo
Ele ment</w>
Echtz eit</w>
D ame</w>
D E
C ur
B and</w>
4 2</w>
Überrasch ung</w>
wer ten</w>
vergan genen</w>
tt ens</w>
tr end</w>
te ams</w>
spezi ell</w>
sha ke</w>
sam ples</w>
rü stung</w>
rup t</w>
repres ented</w>
re verse</w>
psych iat
pro of</w>
pos ing</w>
paradig m</w>
od d</w>
mathemati ci
los es</w>
limit s</w>
leben dig</w>
jo ined</w>
it ut</w>
infin ite</w>
in tri
implic ations</w>
ier tes</w>
h ung
grupp en</w>
gh ten
gewis ser</w>
gesam melt</w>
ges etz
g on</w>
g all
fol gendes</w>
fig u
fi re
f ab
equ ally</w>
ent -
ein st</w>
ein geladen</w>
e dy</w>
do zen</w>
dan cing</w>
conver sations</w>
conc lu
con stra
class es</w>
bus y</w>
bedeu tete</w>
be ach
b lan
aus gesetzt</w>
ath le
ar re
an zusehen</w>
agre ed</w>
Zu cker</w>
Wol ken</w>
Wa gen</w>
Ver sch
U M
Sicht weise</w>
Schri ft</w>
S ä
Re ally</w>
Qu anten
Programm ier
No thing</w>
N ull</w>
M ent
Liter atur</w>
Informa tions
Hil fs
Gl as
Frei willi
Erwachsen en</w>
Entdeck ungen</w>
Ent schul
Dunk el
Deta il</w>
D V
Be fore</w>
Ari sto
über wäl
zu ge
wi der</w>
wes ome</w>
veröffent lichen</w>
ver st
unter wegs</w>
un sicht
un clear</w>
u li
therap ie</w>
te a</w>
ta ined</w>
symbo l</w>
swi mming</w>
stru k
spezi elle</w>
sk raft</w>
sch ar
s or</w>
rech nen</w>
re gre
p f</w>
off ered</w>
na ja</w>
na he
micro bes</w>
mechan is
mechan ical</w>
leist ungs
izi enz</w>
irgend jemand</w>
iden tical</w>
i ere</w>
hö ri
her oes</w>
gros sen</w>
gra m</w>
gr and</w>
ger ing
ge fahren</w>
flo wer</w>
erfor scht</w>
er he
er a
enti erte</w>
embra ce</w>
drin king</w>
dra h
di chte</w>
d einer</w>
connec ting</w>
c ement</w>
bla u</w>
begeg nen</w>
be zeichnet</w>
be enden</w>
be ach</w>
bas ierend</w>
b ol
az z</w>
aus geben</w>
ast ern</w>
arg uments</w>
ar my</w>
appreci ate</w>
and ed</w>
an xi
Zer störung</w>
Zei traum</w>
Vier tel</w>
Ver tei
Ver stehen</w>
Ter r
T rop
Strat egi
Ri chtungen</w>
R wand
R an
Po tenzial</w>
Plast ik</w>
N ähr
L äch
In ten
In fe
Gol f</w>
Gebäu den</w>
Elek tron
Dec ke</w>
Br ust</w>
Ben j
9/ 11</w>
20 ,000</w>
199 0</w>
Ü bri
zu kommen</w>
zu führen</w>
y ment</w>
x is</w>
x -
win det</w>
wher ever</w>
well- being</w>
um fas
tor ies</w>
tim eter</w>
tief er</w>
tau chen</w>
t all</w>
stru ck</w>
sor en</w>
sel ten
schie ßen</w>
s can</w>
res i
puzz le</w>
power s</w>
physi kal
pengu ins</w>
niem anden</w>
nan nten</w>
na m</w>
mittel s</w>
mati k</w>
le mma</w>
l asst</w>
j et
in y</w>
i ma
i let</w>
har m</w>
gi gen</w>
gesell schaft</w>
ges ucht</w>
gelei tet</w>
ge sts</w>
fün f
fer n
fe ature</w>
es is</w>
ernähr en</w>
dat ab
coura ge</w>
contr ast</w>
cle an
cla im</w>
cir cul
certain ty</w>
c tic</w>
c and
bil der</w>
beschle un
be herr
b um</w>
b rie
b chen</w>
aus ch</w>
anti cip
an gry</w>
an geht</w>
ali an</w>
Un fall</w>
T op
Sym bo
Schi ff</w>
P rü
Män nchen</w>
M ay</w>
L atin</w>
Kri min
Klassen zimmer</w>
Inter essen</w>
Ingenie ure</w>
H ur
Gol d
Geschä fte</w>
Gegen den</w>
Gefän g
Führ ung</w>
Fok us</w>
F li
Elefan ten</w>
Broo kl
Blu men</w>
Bi enen
Aspek te</w>
Asi en</w>
A .</w>
4 7</w>
19 th</w>
1 -
zuneh mend</w>
wissenschaft ler</w>
win dows</w>
whe el
voll es</w>
verdi ent</w>
ver stär
ver liert</w>
ut ed</w>
tt aus
tru ck</w>
ti tle</w>
te -
swi m</w>
swe et</w>
surv ey</w>
stri ert</w>
spre ading</w>
s ni
s hr
ro ot</w>
redu ziert</w>
recogni tion</w>
re member
r es</w>
pro z
poor est</w>
po ol</w>
ox id</w>
over all</w>
organis iert</w>
ober en</w>
mäch tig</w>
mon keys</w>
li festyle</w>
lehr en</w>
k et
k alt</w>
j ung</w>
isch em</w>
intui tive</w>
inter nal</w>
ins besondere</w>
hinzu fügen</w>
gr ass</w>
gar anti
frank ly</w>
fok ussi
feh len</w>
ev alu
ens weise</w>
eigent liche</w>
divi ded</w>
distri buted</w>
direc tions</w>
de gra
controll ing</w>
cho col
chem ische</w>
cent uries</w>
car ried</w>
car eful</w>
c ast
behavi oral</w>
autom atically</w>
at em
ast ro
ar ro
ap p</w>
ani mation</w>
am eter</w>
adv ent
Zwei fel</w>
W he
Vo gel</w>
U p</w>
Syst ems</w>
Sch ä
Proble ms</w>
Normal erweise</w>
Min ister</w>
Leon ardo</w>
La w</w>
L ager</w>
Krei sl
J ack</w>
Hy per
Gul f</w>
Gewin n</w>
Ge dicht</w>
Gan zen</w>
G it
Fin ally</w>
Every one</w>
Ent wur
Egyp t</w>
Beru f</w>
Au gust</w>
0 .
Än derungen</w>
yo unger</w>
wis chen
win kel</w>
u pper</w>
tre ating</w>
trans mit
symptom s</w>
suff er</w>
spo ken</w>
si st
sel ection</w>
robo tic</w>
re al
pro be</w>
ph as
pe ac
par ti
p reis</w>
p in
over come</w>
oh nt</w>
o gen</w>
ni cht
mus h
moment an</w>
m im
m ess</w>
kes pe
kauf te</w>
k ette</w>
interessan ten</w>
in spir
hinter lassen</w>
her z
glaub ten</w>
g ger</w>
fra u</w>
fic tion</w>
er neut</w>
er geben</w>
enter tainment</w>
ein geführt</w>
earth qu
e ks</w>
di verse</w>
den sity</w>
d ding</w>
d al</w>
consum ers</w>
ben den</w>
be wirken</w>
auth enti
assu me</w>
Zu g</w>
Zah n
Verl auf</w>
St ein</w>
Sha kespe
Sch utz
R itu
R ad
Psych ologie</w>
Po wer
Platt form</w>
No bel</w>
N ex
Ma chen</w>
Lebenserwar tung</w>
L auf</w>
K ev
Hum or</w>
Hol z</w>
Ha wai
Gr and</w>
Ge t</w>
G let
Erwar tungen</w>
Ernähr ung</w>
En g
Dunkel heit</w>
D r
Cy ber
Ber ge</w>
Beh in
Bedro hung</w>
Ab ent
A pri
7 0s</w>
3 7</w>
Ägyp ten</w>
zü ge</w>
zu geben</w>
zei chnungen</w>
z ell
y m
wunder baren</w>
wieder holen</w>
wel le</w>
wahr nehmen</w>
ver trau
ver mis
v est</w>
trau rig</w>
to ilet</w>
techn ischen</w>
ta x</w>
t ary</w>
sug gests</w>
succe ed</w>
stim ul
st abili
smo d
schön es</w>
scho ck
schmer z
sch rieben</w>
scar y</w>
s ession</w>
ri cul
recor ding</w>
reagi ert</w>
r äume</w>
push ing</w>
po em</w>
p unkte</w>
p ump
on ien</w>
mis sed</w>
mark et
lin ie</w>
lic ity</w>
libr ary</w>
ler nten</w>
leben de</w>
le gten</w>
k amp
i o</w>
i den</w>
hr e</w>
h är
gro ws</w>
gem ä
fil ter</w>
fantast ische</w>
fa ch</w>
erhö ht</w>
er end</w>
equ ation</w>
eng aging</w>
enem y</w>
el i
eig net</w>
dre hte</w>
dep end</w>
concep ts</w>
con trac
co operation</w>
chn er</w>
ch teten</w>
caus ing</w>
c m</w>
brea thing</w>
brea the</w>
bi as</w>
beg reifen</w>
be glei
b rief</w>
b alls</w>
applic ation</w>
ander s
an n
Y o
W under
Verg nü
Ur sprung</w>
Un s</w>
Teil nehmer</w>
Swe den</w>
Sti ftung</w>
Sonnen licht</w>
Sch aden</w>
SE T
S ah
Ph an
P un
O st
Ni veau</w>
Mo z
Medi a</w>
Mc Don
Kranken h
Koh le</w>
I mmer</w>
Hig gs-
H unde</w>
Gre en</w>
Gesch ma
Eth iop
Erwachsen e</w>
Durch schnitt
Chin esen</w>
Carol ina</w>
Bi om
Bevölk erungs
Bei j
Ar z
zer o-
zentr ale</w>
z ö
wir eless</w>
wi red</w>
vor aus</w>
visu elle</w>
verursa chen</w>
verblü ff
ung sp
tra ge</w>
tas ks</w>
studi ert</w>
ster blichkeit</w>
st res
sp äten</w>
sp ort</w>
res p
prin ting</w>
poli cies</w>
po t</w>
po cket</w>
plan en</w>
partic le</w>
pain ful</w>
organ ize</w>
or g</w>
mus ik
mitt elt</w>
mehr eren</w>
main ly</w>
mach st</w>
län dlichen</w>
loo p</w>
kor re
ke y
inf ec
increas es</w>
in put</w>
ill usion</w>
hou seh
ho li
her unter</w>
har mon
h l
grundle genden</w>
green house</w>
gra y</w>
gra b</w>
ger ing</w>
fix ed</w>
ff er
f loo
extin ct</w>
exper t</w>
ex tent</w>
er fassen</w>
dynam ics</w>
dr auf</w>
disappe ar</w>
deter mine</w>
d op
col um
bro ad
brei ten</w>
biolog ischen</w>
besu chte</w>
ber ücksichti
b ast
b ac
at eri
archit ects</w>
an nt</w>
ali zing</w>
acc um
Zäh ne</w>
Wei sheit</w>
Um ständen</w>
Tie fe</w>
T äu
T ony</w>
St ur
Sing ap
Schu he</w>
Sch ok
R önt
R ay</w>
Por tu
Pl ötzlich</w>
N ob
Mikro ben</w>
Medi zin
M ilit
M e</w>
Kap ital</w>
Inn eren</w>
Heu tzutage</w>
G ive</w>
F ron
F our</w>
F all
Erinn ern</w>
Einfa ch
E M</w>
Coun ty</w>
Con go</w>
Bel oh
zw ungen</w>
ver zwei
un belie
trans late</w>
ti p</w>
ten den</w>
t schaften</w>
t ab
stic ks</w>
st ig
sk op
si de
sever e</w>
s sen</w>
resist ance</w>
ren ew
r ating</w>
qu ad
progra mm</w>
pri ces</w>
pres ented</w>
par king</w>
out comes</w>
om in
ob stac
o th
ni ture</w>
nei gen</w>
nation alen</w>
main tain</w>
m p</w>
letz ter</w>
leg is
lat est</w>
l auf</w>
l asse</w>
inv ent</w>
inst inc
ing dom</w>
iel d</w>
ho ods</w>
h all</w>
grün dete</w>
ges prä
fu els</w>
ft -
flo ating</w>
fem in
f are</w>
explor ing</w>
ernsth aft</w>
er lich</w>
eleph ant</w>
e ds</w>
dra matically</w>
dis orders</w>
d einem</w>
cy ber
col ony</w>
bro thers</w>
auf nahme</w>
as sum
ar is
aff ord
abili tät</w>
W ellen</w>
Ver kehr
Tre ffen</w>
Syst emen</w>
Sto ck
Sp ort
So ft
Schi ff
Sa gen</w>
R ö
Q a
O ther</w>
Mobil telef
M um
Kä mp
Kor allen
K amer
K abel</w>
Jo se
Inner halb</w>
H em
Gl üh
Führ er</w>
Fun ktion
Fak toren</w>
Fabri k</w>
Eu ch</w>
Ein richtungen</w>
E-Ma il</w>
D UM
Col um
Bo x</w>
Blu e</w>
Bet rie
Ar th
6 0s</w>
3 6</w>
z ün
wör tlich</w>
wor um</w>
wech sel</w>
wal d</w>
w em</w>
vor sichtig</w>
ver folgt</w>
ul ty</w>
tox ic</w>
syn chron
sum mar
stir bt</w>
st est</w>
so weit</w>
sk op</w>
sig ned</w>
shoul der</w>
selt same</w>
se ed</w>
schlä ge</w>
sch ten</w>
samm lung</w>
quar ter</w>
proto type</w>
philosoph y</w>
or chest
on ing</w>
neu gieri
mit nehmen</w>
meas uring</w>
lo vely</w>
lo cked</w>
kre ativen</w>
konfron tiert</w>
inter active</w>
in no
imm une</w>
ill a</w>
il -
hö here</w>
hei ß</w>
hal f-
h ie</w>
grü n</w>
gl es</w>
ger ettet</w>
gene tischen</w>
geb iet</w>
for dern</w>
f ließen</w>
f ie</w>
f ass
exhibi tion</w>
ex trac
esc ence</w>
er mor
em bed
ei len</w>
educ ational</w>
di d
der al</w>
compon ent</w>
cele brate</w>
bor ders</w>
bemerkens wert</w>
bei gebracht</w>
be unru
be hin
b y-
b and
atta ched</w>
appe ared</w>
amp e</w>
a stero
Z en
Wit z</w>
Wissenschaft lern</w>
Welt krieg</w>
Spek trum</w>
Sa al</w>
S un
Re chen
Proje kten</w>
Pf le
P R</w>
Num ber</w>
Neu igkeiten</w>
Musli ms</w>
Mo der
Mi ke</w>
M ale</w>
L G</w>
K ei
J un
Ha ie</w>
F ett
Ex c
Eigen schaft</w>
Chi le</w>
C ou
Bus iness</w>
Ban g</w>
B em
B ell</w>
Auswah l</w>
Apri l</w>
Analy se</w>
An gele
Afri kaner</w>
Ab hän
7 2</w>
3 0-
- like</w>
ü ge</w>
Ökon omen</w>
z e
we b
vor hin</w>
viel mehr</w>
viel fäl
ves sels</w>
ven tion
trans forma
tig keiten</w>
ti ll</w>
sus pen
sur ely</w>
su s</w>
smo ke</w>
sli des</w>
schwieri ge</w>
schri tt
sav ings</w>
s in</w>
reach ing</w>
re gar
re ak
ra w</w>
produ z
popul ations</w>
poli o</w>
pl enty</w>
pil ot</w>
path ie</w>
pain tings</w>
p hrase</w>
op ar
n els</w>
me etings</w>
mati sche</w>
m one</w>
li kes</w>
laugh ing</w>
kon sum
kom mun
ja il</w>
it arian</w>
inter actions</w>
inter acting</w>
insur ance</w>
imag in
il and</w>
hier arch
hei ght</w>
hab itat</w>
h unger</w>
h ir
h et
h an</w>
gra mm</w>
gi er
geschni tten</w>
geb unden</w>
ge startet</w>
g ül
four -
exist ed</w>
erklär te</w>
entscheiden d</w>
ell ed</w>
econom ies</w>
do t</w>
de partment</w>
dank bar</w>
ck te</w>
ch ens</w>
besu cht</w>
be kämpfen</w>
aus machen</w>
ar i</w>
an passen</w>
al li
acc essi
Z e
Wah len</w>
W ähr
Viet nam</w>
Ver wendung</w>
The orien</w>
T ar
St art</w>
Sch reiben</w>
Sch a
Resear ch</w>
Par ty</w>
Pa ar</w>
No vember</w>
Nachbar schaft</w>
Monter ey</w>
L ab</w>
Kur z</w>
Kohlen stoff</w>
I .
H op
H im
H C</w>
Ge fan
F ro
Er ste</w>
Emis sionen</w>
Detro it</w>
Dar über</w>
DUM M
D op
Car to
Ber lin</w>
Benj amin</w>
B or
B M
A my</w>
199 8</w>
wie viel</w>
we stern</w>
vi eren</w>
vern ünf
ver tei
v ation</w>
un expected</w>
um -
u tili
travel ed</w>
ter in</w>
ten de</w>
spi der</w>
sogenan nten</w>
si e
sch utz</w>
s m</w>
ri a</w>
recei ve</w>
priv acy</w>
pres cri
pre cis
precis ely</w>
practic es</w>
posi tions</w>
pi le</w>
op ter</w>
nap p</w>
motiv ation</w>
moral ischen</w>
mer zi
mer kt</w>
lich ten</w>
lic ense</w>
li ft</w>
ist ische</w>
invol ves</w>
in tr
ho st</w>
hal t
graph ics</w>
glück licher</w>
fur niture</w>
flo g</w>
flie ßt</w>
flexi ble</w>
fascin ated</w>
fal ten</w>
et c.</w>
elektr ischen</w>
eben e</w>
drei dimension
do x</w>
dio xide</w>
dig nity</w>
den selben</w>
construc ted</w>
commit ment</w>
col li
co ok</w>
classi c</w>
chan nel</w>
cha o
bi ge</w>
berü hren</w>
as ing</w>
appe ars</w>
achie ved</w>
Z ur</w>
Wer t
Wahrschein lich</w>
W ander
Vir gin
Tra ining</w>
To ten</w>
Symbo l</w>
Str and</w>
Sp ort</w>
Sch icht</w>
R ick</w>
MR I</w>
Kon stru
Kohlen stoff
Ingenie ur
H all</w>
Gro ßen</w>
Gol f
Gesi chts
Ges etz
Feyn man</w>
Fan tas
Dem oc
DN S</w>
Con nec
Chil dren</w>
Beloh nung</w>
B lei
Arth ur</w>
Al ler
Afri cans</w>
ät te</w>
äh en</w>
zurück kehren</w>
zul assen</w>
zeu gung</w>
y ro
y an</w>
win zigen</w>
wh ale</w>
ver an
ursprün glich</w>
un its</w>
ti ed</w>
thro wn</w>
teil ten</w>
tal ent</w>
stand s
st ücke</w>
sho oting</w>
sculp ture</w>
scri pt</w>
sc ra
sa ßen</w>
s y</w>
reco very</w>
proper ly</w>
pre fer</w>
ph il
pac ken</w>
ori sten</w>
op posed</w>
off ic
occu p
neuro log
neur on</w>
nervö s</w>
n un
mess er</w>
me -
ma r</w>
ligh ting</w>
langwei lig</w>
l o</w>
l i</w>
kre ativ</w>
k i</w>
ju dge</w>
journ alist</w>
j enen</w>
j ap
j ahr</w>
inten sive</w>
inten se</w>
in kl
il leg
hous ing</w>
hor izon
ho her</w>
hear ts</w>
h nen</w>
gesch windigkeit</w>
gef asst</w>
ful l-
friend ly</w>
fran zös
f ur</w>
ess ing</w>
erwäh nen</w>
er tes</w>
dy s
domin ant</w>
divi de</w>
di ver
di en</w>
destro yed</w>
chi p</w>
cat s</w>
carto on</w>
c eiling</w>
ben s</w>
be wahren</w>
be have</w>
ast on
agen da</w>
V ic
Un ter</w>
U S</w>
Tri ck</w>
Teu fel</w>
Teen ager</w>
Sti r
St ell
Son n
Sau di</w>
Ri chtige</w>
Pingu ine</w>
Part ner
Ox y
Mi o</w>
Medi um</w>
M T</w>
Kü che</w>
Kon go</w>
Kar ik
Inst itut</w>
In tu
Gleich gewicht</w>
Geri cht</w>
Ge ographic</w>
Fre qu
En d
E ier</w>
E he
Denk weise</w>
Ch ild</w>
C amp
Bo y</w>
B us</w>
B rei
Atlan tic</w>
An y</w>
An stieg</w>
A ir</w>
2 .000</w>
y right</w>
wü tend</w>
wä s
wher eas</w>
w ashing</w>
verschieden er</w>
ug ly</w>
t ank</w>
super -
stec kte</w>
ste te</w>
sta tions</w>
sta at</w>
st elli
sp orts</w>
ris ing</w>
recogni zed</w>
re pair</w>
quest ion
produc tivity</w>
plan et
per su
o bes
nei ther</w>
monit or</w>
mol ekul
min us</w>
milit är
mani pu
mal es</w>
leu chten</w>
la dies</w>
kümm ert</w>
k lang</w>
it er</w>
invest iert</w>
in fiziert</w>
il le</w>
ignor ieren</w>
ignor e</w>
hol te</w>
hin unter</w>
h n</w>
glo be</w>
gew ann</w>
ge trennt</w>
g ging</w>
fän ger</w>
ex o
eth ical</w>
era dic
er kennung</w>
ent liche</w>
en ergi
en .</w>
dun klen</w>
dist ant</w>
disappe ared</w>
cu te</w>
circu it</w>
chines ische</w>
ben utze</w>
ati ver</w>
ak tive</w>
ad el
Wie der</w>
Wat son</w>
Tro tzdem</w>
Terr oristen</w>
Tas man
Ste phen</w>
St .</w>
Schok ol
Schmer zen</w>
Satelli ten</w>
S amen</w>
Rea ktionen</w>
Po int</w>
Pal est
P it
Ori gin
Ne anderth
Nat ure</w>
Nachhal tigkeit</w>
N ep
Mathemati ker</w>
Li b
Kom men</w>
K enn
In te
In seln</w>
Imp ul
Har ry</w>
H ac
Gedäch tnis</w>
Desig n-
Char lie</w>
Brookl yn</w>
A qu
20 30</w>
199 9</w>
zurück gehen</w>
zeich nete</w>
year- olds</w>
wunder schöne</w>
viel er</w>
verschie den</w>
ver wal
v enti
v ater</w>
uni versi
tex t
t our</w>
symmet ry</w>
steh ung</w>
st um
spiri tual</w>
spec tac
sor gung</w>
sh ell</w>
schul dig</w>
sau ber
sac ri
s now</w>
ries iges</w>
r ö
pl ed</w>
person ality</w>
pac kt</w>
on a</w>
mar ks</w>
mam mo
kön ne</w>
kre ative</w>
jen em</w>
inspiri eren</w>
in ju
in equality</w>
imag ined</w>
identi fizieren</w>
har te</w>
h assen</w>
guar an
grundle gend</w>
gl ac
g ur
fund ed</w>
fro zen</w>
enti al</w>
enga gement</w>
emp finden</w>
embed ded</w>
el se
dolph ins</w>
destro y</w>
dep ending</w>
da zwischen</w>
ch tete</w>
bro w
bel on
be vorzu
be troffen</w>
arbei tung</w>
an gehen</w>
academ ic</w>
a ß</w>
a wesome</w>
Wäl der</w>
W and
Vo ice</w>
T ha
So vi
Rei ch
R at</w>
Pro ben</w>
Physi ker</w>
P ic
N ations</w>
Mit glieder</w>
Mas sa
Mar ke</w>
M angel</w>
Lei den</w>
L aufen</w>
Kor allen</w>
Konfli kte</w>
Kin des</w>
Kat astrophe</w>
J ones</w>
Islam ic</w>
Informa tion
In s
Hin blick</w>
Gand hi</w>
Fün f</w>
F ei
El tern
Desig n
Bu dget</w>
Bi bel</w>
Beri cht</w>
B ran
Anwen dungen</w>
Amaz on
A ktion</w>
3 D-
ß er</w>
w un
ver läs
tt en
tr ennen</w>
tr ends</w>
ta gs
syst e
stu hl</w>
stre ben</w>
stam men</w>
st a</w>
spo ts</w>
so- called</w>
simp licity</w>
sicher heit</w>
si erung</w>
sh ut</w>
sh irt</w>
sc ales</w>
rou te</w>
rob ust</w>
ri cal</w>
repres ent
regel mäßig</w>
rat ch</w>
pur ch
produc es</w>
pan dem
off izi
obes ity</w>
mitt lerweile</w>
lin ien</w>
leg acy</w>
l ation</w>
kur r
kom merzi
klein ere</w>
k er
is lam
incenti ves</w>
im a</w>
h ten</w>
gr as
govern ance</w>
gewand t</w>
fl äch
expec tations</w>
en kt</w>
emp fin
ei d</w>
der -
d dy</w>
cor d</w>
conflic ts</w>
commit ted</w>
cht um</w>
chocol ate</w>
char ity</w>
cap tured</w>
besonder en</w>
bes ei
bar s</w>
auf gaben</w>
an scheinend</w>
adverti sing</w>
ab use</w>
Zer o</w>
Willi am</w>
Vor gang</w>
Unter richt</w>
Universi täten</w>
Tit an</w>
T asche</w>
SET I</w>
S zen
Rom an</w>
Persön lichkeit</w>
Par kin
P eri
No ten</w>
Mor al</w>
Me dic
Le go</w>
L A</w>
Küh l
Kat ze</w>
Je denfalls</w>
Janu ary</w>
J ul
Höh ep
Ha w
H ier
Fü ße</w>
Fre e
Desig ns</w>
D .</w>
An ders</w>
20 20</w>
ät ten</w>
zw ingen</w>
wä hr
we al
wan ting</w>
vi ral</w>
us ions</w>
um so</w>
u um</w>
str en
stimm ung</w>
spea ker</w>
sk et
schwar z</w>
ru hig</w>
ris k
rei se</w>
produ ktion</w>
po x</w>
or bit</w>
o t
neben bei</w>
micro scope</w>
m id</w>
län ge</w>
kur z
kultur ellen</w>
it al
ischer weise</w>
irgend einem</w>
i ans</w>
hö heren</w>
hon est
histor ical</w>
hei raten</w>
gra d</w>
gewöh nt</w>
ges unde</w>
fra c
for mal</w>
flus s
ff er</w>
fac ial</w>
f an</w>
exc ell
escap e</w>
eri um</w>
educ ated</w>
e chtes</w>
dra wn</w>
doc ument</w>
dis order</w>
di ents</w>
dedic ated</w>
cr ying</w>
cho sen</w>
bizar re</w>
beschrei bt</w>
berech nen</w>
be er</w>
back wards</w>
astrop hen</w>
asi de</w>
arab ischen</w>
anal og
accessi ble</w>
ab und
ab and
Virgin ia</w>
Ver fahren</w>
Tra gö
Techni ken</w>
T ell</w>
Strategi en</w>
Sco tt</w>
Sch ach
S am</w>
S O
Rau b
R oo
R and
Präsi denten</w>
Pres se</w>
Pa zi
Organ e</w>
Nob el
Nex t</w>
J eff
Invest itionen</w>
Hu b
H öl
H ong</w>
Gesprä che</w>
Gen e
Geist es
Far b
Einfach heit</w>
Ein schrän
Eff izienz</w>
B ir
Au tismus</w>
Arg ument</w>
An ruf</w>
Abra ham</w>
3 4</w>
3 1</w>
19 50</w>
19 0
än den</w>
yst em</w>
wunder volle</w>
wei gh
vi te</w>
un des</w>
transp lan
ta x
ta p</w>
ta ining</w>
su icide</w>
strategi es</w>
stor m</w>
she ep</w>
sex y</w>
see ds</w>
schlä gt</w>
schic kte</w>
sch were</w>
rä f
ro llen</w>
ri ght-
repar ieren</w>
pro ce
privi lege</w>
mitt leren</w>
mamm als</w>
len ken</w>
le tting</w>
k oll
k napp</w>
it -
innov ations</w>
in dischen</w>
höch sten</w>
hä ss
h ire</w>
gro ss
geno ci
gen u
g eren</w>
fir m</w>
fei ern</w>
f ris
emotion ale</w>
effizi ent</w>
ear n</w>
deck t</w>
d ler</w>
custom ers</w>
cor respon
construc t</w>
communic ations</w>
che aper</w>
cas h</w>
c ry</w>
bo gen</w>
bili tät</w>
bicy cle</w>
b um
b ill</w>
b ags</w>
asp ects</w>
an spru
air craft</w>
Z iel
Wet ter</w>
Wel traum</w>
Vor tra
Vor schlag</w>
Ven e
T anz</w>
Sz ene</w>
Symp tome</w>
Sto ff
Sp inn
Se a</w>
San ta</w>
Rwand a</w>
Ris ik
Re g
Proz esse</w>
P ollen</w>
P har
P C</w>
NG Os</w>
Maß nahmen</w>
Kom m</w>
J A</w>
Geb ieten</w>
G ö
G rie
Flu g</w>
F ischer
Dok tor
Dep res
Dad urch</w>
CE O</w>
Bü chern</w>
Bro wn</w>
Batter ie</w>
B rief</w>
B e</w>
An streng
An drew</w>
3 50</w>
19 80</w>
y e</w>
w et
w ein
ur a</w>
tri cks</w>
te ars</w>
syst ema
stor es</w>
sta tic</w>
st ops</w>
st amm
simp li
sho ck</w>
scri p
schön er</w>
schließ end</w>
s eins</w>
ro cks</w>
repe at</w>
ow ned</w>
neugieri g</w>
my stery</w>
mus cles</w>
ment ally</w>
lin der</w>
li mit</w>
li en</w>
li an</w>
le th
l oud</w>
kti s</w>
ko st
k ton</w>
k tive</w>
k rise</w>
jewei ls</w>
intelli gent
ins gesamt</w>
in zwischen</w>
im plan
hea ven</w>
har dly</w>
gr öße</w>
ges unden</w>
ger äte</w>
geb iete</w>
geb au
fra gi
flu id</w>
ex tract</w>
en dete</w>
emer gency</w>
dru cken</w>
dro ve</w>
dark ness</w>
d or</w>
d ated</w>
contin ues</w>
cont emp
conc ern</w>
collec ting</w>
colleag ue</w>
clin ic</w>
cla im
ck ers</w>
bo ards</w>
besch ä
berei t
benutz ten</w>
bede ckt</w>
ballo on</w>
b low</w>
aus einander
at tra
ash es</w>
an stelle</w>
amon gst</w>
alis ierten</w>
al tes</w>
aktu elle</w>
ad ol
Woh er</w>
Welt bevölkerung</w>
W äre</w>
W ände</w>
W ein</w>
W asch
Vor träge</w>
Vergnü gen</w>
T im</w>
Ste ven</w>
Ser ie</w>
S oll
Resul tate</w>
Prei se</w>
Ph .
Pflan ze</w>
P ole</w>
Organis mus</w>
Mus keln</w>
Mo tor
Mo ore</w>
M ün
M ä
M om</w>
Läch eln</w>
Lebens mittel
Kev in</w>
K nie</w>
Jahr es
I BM</w>
Glei chung</w>
Gemü se</w>
Fr auen
Fle der
Fein d</w>
Feh l
Erdbe ben</w>
Ehr e</w>
E he</w>
Com p
C ent</w>
C H
Auf bau</w>
Al li
Ab ed</w>
A kt</w>
öffent lich</w>
Übri gens</w>
Über wach
yp e</w>
wom it</w>
visu ellen</w>
vir tually</w>
ver pflich
un sichtbar</w>
un ehmen</w>
u el</w>
transpar ency</w>
tel s</w>
te stet</w>
sur faces</w>
st eine</w>
st ages</w>
sear ching</w>
scho ol
res cue</w>
rel ations</w>
rec ke</w>
re plac
re gener
re form</w>
r ar
pro s
primi tive</w>
po l</w>
op y</w>
oo h</w>
ol dest</w>
off icial</w>
nü t
nor thern</w>
musici ans</w>
mo chte</w>
lo gen</w>
lo aded</w>
lin ed</w>
li est</w>
it os</w>
inspir ing</w>
igh t
hun gry</w>
hervor ra
hard ware</w>
gän ge</w>
grat eful</w>
gan gs
för m
frü heren</w>
frequ ency</w>
foot print</w>
fin ds</w>
far mer</w>
fa che</w>
er füllen</w>
electron ics</w>
domest ic</w>
disku tieren</w>
d der</w>
curi osity</w>
ch oo
ch amp
cele br
c e-
bei des</w>
b att
at tri
afford able</w>
ad ding</w>
a kt</w>
Z o
Wichti gste</w>
W ut</w>
Ver wal
Ver teilung</w>
Ver suchen</w>
Ur sache</w>
Sor ge</w>
S tern</w>
Ru f</w>
Proto typen</w>
Pop ulation</w>
Mum bai</w>
Milit är
Kon gress</w>
In deed</w>
In d
Her stellung</w>
Hand lungen</w>
Gebäu des</w>
Funk tionen</w>
Fl asche</w>
Ein kommen
E ur
E lec
Dienst leistungen</w>
Di re
Di abetes</w>
Dem on
Che f</w>
C ho
Bl ack
Bibliothe k</w>
Bi ble</w>
B eu
Aus rüstung</w>
Akti vi
A ch</w>
. org</w>
über setzen</w>
änder te</w>
Än derung</w>
win zig</w>
wieder holt</w>
wa cht</w>
vor an
verk ün
ver ließ</w>
ver gewal
tradition elle</w>
tr äumen</w>
ti les</w>
te i</w>
tan zen</w>
span ne</w>
sh ops</w>
rei cher</w>
ra dic
quar ters</w>
pro te
predic table</w>
poli tik</w>
pic king</w>
pi on
optim istic</w>
off ene</w>
no is
nach denkt</w>
min ing</w>
metho ds</w>
mel zen</w>
lie b
letz t</w>
legi ti
la id</w>
kre u
k reis</w>
k arten</w>
insp ire</w>
initi al</w>
in i</w>
in hab
imp res
iP od</w>
hin gehen</w>
hil frei
head ed</w>
har m
h üb
h of</w>
ges und
geni us</w>
ge we
ga ther</w>
fru it</w>
fif th</w>
er öffnet</w>
er langen</w>
enth usi
em phas
em a</w>
else where</w>
el ly</w>
ei llan
eff orts</w>
disco ver
dev ast
d less</w>
cro ps</w>
cir cles</w>
chimpanz ees</w>
ch romo
ch est</w>
capit alism</w>
boundar ies</w>
blo gs</w>
bil d
benutz te</w>
be trägt</w>
außergewöhn lich</w>
appar ently</w>
ada pt</w>
ad vis
accep ted</w>
a es
Vor der
Ver zwei
Ver anst
Ungleich heit</w>
Trä nen</w>
T en</w>
Stand ard
Staat s
Sp i
Soft war
Shakespe are</w>
Selbst mor
Sar ah</w>
Rei sen</w>
Pho to
Philosop hie</w>
Pfer d</w>
P in
Ori g
New ton</w>
My th
Motiv ation</w>
Ma ch</w>
Lu x
Lo gik</w>
L ass</w>
J ack
In dem</w>
Fig ur</w>
E con
Bl ase</w>
Beij ing</w>
BI P</w>
Aus nahme</w>
An weis
Alterna tive</w>
Al ter
Über all</w>
y ours</w>
w an</w>
verletz t</w>
universi ties</w>
ten den
techn ische</w>
sym b
spea kers</w>
sk i
se ats</w>
sch ä
sch ol
sch icht</w>
sch e
repräsenti ert</w>
re gu
re efs</w>
re ale</w>
r um
r ab
provi des</w>
probab ility</w>
priv aten</w>
pregn ant</w>
posi tiven</w>
pass ing</w>
par as
p ink</w>
ord net</w>
or -
mo de</w>
m ungen</w>
lu ck</w>
lich keits
le eren</w>
krei ert</w>
kei t
kap utt</w>
k g</w>
ist ischen</w>
ist ics</w>
irgend welche</w>
inten ded</w>
höch ste</w>
her self</w>
gro ss</w>
grand father</w>
glei cht</w>
ger aten</w>
fri ghten
fo unded</w>
fli p</w>
fac ili
ex posed</w>
ep tions</w>
enor men</w>
eh em
earthqu ake</w>
e ye
di c</w>
di abetes</w>
def ense</w>
d ust</w>
d rop
contri bute</w>
ck en
chines ischen</w>
c up</w>
brea ks</w>
bewus st
begrenz t</w>
b elt</w>
arg um
ar es</w>
apart ment</w>
an fängt</w>
an bieten</w>
alis ierte</w>
ag ue</w>
after wards</w>
adv ance</w>
Zeh n
Wür den</w>
Waff e</w>
Ver hand
Ver brau
V ölk
Um stände</w>
Tr end</w>
Sti ft</w>
Sek tor</w>
Se attle</w>
Schni tt
S par
S mar
Rönt gen
P et
P C
O .
Ne ws</w>
Mechan ismus</w>
Me tern</w>
Lo ve</w>
Lin ks</w>
L. A.</w>
Kompon enten</w>
Jun i</w>
Janu ar</w>
H ä
G uten</w>
Fahr er</w>
Er staun
Dutz end</w>
Dru ck
Dan iel</w>
D ün
Clin ton</w>
C oc
Brun o</w>
Bi ologen</w>
App ar
Ali ce</w>
Al as
5 0.000</w>
5 -
4 ,000</w>
1 30</w>
ß es</w>
Ü bung</w>
vis ited</w>
vari ation</w>
v is</w>
trage dy</w>
tra jec
tra its</w>
th iop
stran gers</w>
stra ße</w>
spra ch
small pox</w>
sh ri
sh ing</w>
setz ungen</w>
se ek</w>
se as</w>
schlimm sten</w>
schi enen</w>
s ales</w>
ru ft</w>
roman tic</w>
rich ten
repor ted</w>
ren nen</w>
reflec t</w>
reduc tion</w>
re moved</w>
qu is
publi c
pro per</w>
poli tisch</w>
phys ischen</w>
phys ische</w>
pho to
ph a</w>
pat ent</w>
p yra
orig ami</w>
ord entlich</w>
ni r
men de</w>
mani fest
leh nen</w>
kul tur</w>
ko p</w>
k einem</w>
k an</w>
in vite</w>
in formed</w>
ho st
hin auf</w>
gran ted</w>
gest altet</w>
ges ün
gegen über
geb äu
ge öffnet</w>
fest gestellt</w>
f it
eth ni
essen ce</w>
ent gegen
el ing</w>
eillan ce</w>
eh e</w>
dur fte</w>
dun kel</w>
dri ll</w>
det ec
d ges</w>
d ating</w>
con tract</w>
con tra
clu b</w>
calcul ate</w>
belie fs</w>
bar ely</w>
ban on</w>
aus ser
any on</w>
announ ced</w>
analysi eren</w>
am ine</w>
agen cy</w>
ade my</w>
ab gesch
Zentr al
Wur zeln</w>
Verk ehr</w>
U C
Treib haus
Transpar enz</w>
T ol
Sor ry</w>
Sen soren</w>
Schwar ze</w>
Schla f
Sah ara</w>
S itz
Pf ei
Nach frage</w>
Mil ch</w>
Man nes</w>
Korallen ri
Kno chen
K ok
Je ff</w>
Ig nor
Höhep unkt</w>
H äu
Gesund heit
Ein heiten</w>
E astern</w>
Doll ar-
D as
Br ut
Bere chnungen</w>
Ben utz
Arab ic</w>
An pass
5 0-
198 4</w>
zu hören</w>
wer det</w>
weib liche</w>
w ow</w>
w ns</w>
ver tical</w>
v ent</w>
unge heu
under ground</w>
tri vi
tor i
ti t
ti red</w>
sp a
sor ge</w>
sicher er</w>
she et</w>
separ ated</w>
sens or</w>
schwer er</w>
schrei be</w>
prä z
pre cise</w>
pol ar</w>
pain ted</w>
ord nen</w>
or ous</w>
ograph ie</w>
net z</w>
mis er
m ice</w>
lo ser</w>
l aser</w>
kauf s
jähri ger</w>
jähr lich</w>
jen seits</w>
j o</w>
ir on
intelligen te</w>
integr ated</w>
inn ere</w>
inclu des</w>
in en
hol ds</w>
hin sichtlich</w>
ha gen</w>
go od
gi ble</w>
gel aufen</w>
fron tal</w>
fi ber</w>
evol ve</w>
es ch
erneu er
end ste</w>
en counter</w>
emer ge</w>
dir ty</w>
diagra m</w>
di oxid</w>
depres sed</w>
cur ricul
con sequence</w>
com modi
cir ca</w>
ch sen</w>
capit a</w>
cap ability</w>
bro wn</w>
br en
billi g</w>
be fassen</w>
b or</w>
autonom ous</w>
auth or</w>
aus macht</w>
aus drücken</w>
ak tiven</w>
afrikan ische</w>
adv oc
ab gesehen</w>
Wh it
Wei bchen</w>
Verbesser ung</w>
V ul
Tr ends</w>
Toile tte</w>
Sovi et</w>
Sh ould</w>
Sch on</w>
S ier
Pap a</w>
No ti
Moz art</w>
Lei d</w>
Lehr ern</w>
Konzep te</w>
Inter pre
Höh le</w>
Ha are</w>
H ello</w>
Geschi chten
Führ ung
For ce</w>
Flug zeuge</w>
Fing er
Fahr zeuge</w>
Europ ä
Erkrank ungen</w>
E .
D ev
D al
Com m
Brust krebs</w>
Atlan ta</w>
Am erikas</w>
20 .000</w>
zukünf tigen</w>
z el</w>
wri ters</w>
wor t</w>
we ak
wa ffen</w>
vor gestellt</w>
volunte ers</w>
vo ted</w>
versch windet</w>
verrück te</w>
ver teilen</w>
ver stecken</w>
ver langen</w>
to ys</w>
ti se</w>
the ories</w>
terror ists</w>
t ancy</w>
st ets</w>
st ant</w>
sozi al</w>
sorg fäl
si v</w>
si mu
sel t</w>
se a
schrei ten</w>
schla u</w>
rupp en</w>
real m</w>
re act</w>
ra tions</w>
prot ecting</w>
photograph y</w>
phil anthrop
partici pants</w>
p ace</w>
o is</w>
neuro science</w>
neighbor hoods</w>
nahe zu</w>
lie fert</w>
lich ung</w>
lec ture</w>
ko oper
kil ometer</w>
kel ey</w>
j i
is ieren</w>
ingre dients</w>
impro vement</w>
hel ic
han ging</w>
gol f</w>
glob ally</w>
gh ters</w>
ger ü
geb ungen</w>
ge ous</w>
for est
foot ball</w>
fol gte</w>
fig uring</w>
experim ent
ek tar</w>
einzigarti g</w>
einz iges</w>
eco systems</w>
determin ed</w>
demon strate</w>
da y
cr yst
chap ter</w>
brie fly</w>
bi ologists</w>
ber fläche</w>
bei tragen</w>
be freien</w>
ban ks</w>
b i</w>
aus reich
aus gehen</w>
arch ie</w>
ah l</w>
a ßen</w>
Z it
W äh
Ur kn
Un i</w>
T ou
T ok
T ja</w>
St ein
Sch nee</w>
Re gel
Re ch
Qu een</w>
Privat sphäre</w>
Pri or
Poli o</w>
O l
Ma ke</w>
Lei ter</w>
L ungen
L og
Kontro ll
Konsu menten</w>
Kap az
K rä
K oll
K it
Jose ph</w>
Jo sh
In halte</w>
Hin weise</w>
Hawai i</w>
H ans</w>
Glob alisierung</w>
Ever est</w>
Entwick lung
Econ om
Eben en</w>
E l</w>
D opp
C as
Ber keley</w>
Ap p</w>
An hän
An ges
A mp
19 00</w>
- and-
üh le</w>
zi elt</w>
zah lt</w>
woo ds</w>
verl or</w>
ver -
us alem</w>
ungs -
tu bes</w>
tri bes</w>
ti ze</w>
th ick</w>
syn the
symb ols</w>
surv eillance</w>
st ö
st igen</w>
skelet on</w>
sk o
schli mm</w>
schl ussendlich</w>
rec ru
re turned</w>
qu elle</w>
pyra mid</w>
pul ling</w>
prä sent
programm ieren</w>
pi g</w>
pharma c
p ort
neighb or</w>
nan o
mm ed</w>
ma ch</w>
m ill
m ier
m ic</w>
m all</w>
lim b</w>
ligh t
lei den
la yers</w>
l as
künst ler
kämp ft</w>
kon ta
isol ated</w>
ir on</w>
inj ury</w>
ier endes</w>
ho o
grand children</w>
go ver
gest iegen</w>
ge zwungen</w>
fill ing</w>
ex akt</w>
essi ons</w>
entdeck ten</w>
el -
e ast</w>
dimen sion</w>
di stra
der ly</w>
den heit</w>
dau ghters</w>
cru cial</w>
crimin als</w>
consu me</w>
consi stent</w>
conc ei
cli ents</w>
chem ischen</w>
ch irur
bub bles</w>
bl ame</w>
bedeut end</w>
be wäl
be mü
be fest
auth or
aus schließlich</w>
answer ed</w>
allge mein</w>
al phab
agri cultural</w>
agen cies</w>
Wo chen
Whe ther</w>
Wer den</w>
W right</w>
Ver sorgung</w>
V inc
V al
T ele
Sp ur</w>
Sp ie
Schwe stern</w>
Schwar z
S hi
S har
S P</w>
Ru he</w>
R over</w>
Pri ze</w>
Pho en
P E
Null sum
Mon tan
Ma ß</w>
M A
L ord</w>
L esen</w>
Ken ne
Je wish</w>
Initi ative</w>
Hu man</w>
Ger uch</w>
G or
G a
Flü gel</w>
En zy
Dok tor</w>
Di alog</w>
Dar auf</w>
D ad</w>
Be darf</w>
B ord</w>
An sichten</w>
An griff</w>
Al bert</w>
199 5</w>
' 70s</w>
über setzt</w>
äl teren</w>
zwei tens</w>
wor thy</w>
win d
wil d
welt weite</w>
w ing
w ecken</w>
verring ern</w>
ver liebt</w>
ve ter
unter halb</w>
un likely</w>
un comfortable</w>
tt on</w>
tru cks</w>
tro pic
tra gung</w>
tie fen</w>
tie fe</w>
thir ds</w>
ten sion</w>
tei lte</w>
ta tionen</w>
t our
t ability</w>
symbo li
su lin</w>
stri eren</w>
span nen
sozi aler</w>
sil ent</w>
sen z</w>
scha u</w>
ru fe</w>
roll ing</w>
res pec
remin ded</w>
re putation</w>
r unter
pro jekt</w>
pit ch</w>
physic ist</w>
photograph er</w>
per t</w>
p it</w>
p an</w>
orig in</w>
op ens</w>
olog isch</w>
ni ght
letz tlich</w>
kop f</w>
komm st</w>
k nee</w>
k auft</w>
iz on</w>
ir ri
ignor ance</w>
heu tige</w>
her es</w>
hal ts
gesch ützt</w>
gel ehrt</w>
flu g</w>
fir ma</w>
fac ility</w>
f lich</w>
exp anding</w>
erwar tete</w>
erk unden</w>
er setzt</w>
ent täu
elec tions</w>
din osau
diagno stiz
di ving</w>
di alog
deli vered</w>
de bt</w>
cur ren
contro ls</w>
consci ously</w>
character istics</w>
cha os</w>
ch airs</w>
bl ack
bi qu
bi olumin
best eh
behaup te</w>
be darf</w>
auszu drücken</w>
ausge geben</w>
ari um</w>
anc ing</w>
acci dents</w>
ab eth</w>
Wer be
Video spiele</w>
U p
Sy l
Strei t
So cial</w>
Sk y
Sier ra</w>
Schü lern</w>
Sch il
S til</w>
Prot ein</w>
P enn
Oper ationen</w>
Mil ch
Lar ry</w>
Kop f-
Kon kurr
Kon g</w>
Kommunik ations
Ko so
Klin ik</w>
Ki ste</w>
Ju gend</w>
Inter nets</w>
Inten si
I tal
I ron
Hum an
H ab
Gi pfel</w>
Frem den</w>
F ünf
F oo
Entwicklungs länder</w>
Ehem ann</w>
E D
Dien st</w>
D ut
D inger</w>
Chin es
C our
Bel ast
Bab ies</w>
B ack</w>
Aut or</w>
Ar gent
Anti -
A tem
' 60s</w>
ü mm
ö fter</w>
äl tere</w>
zurück kommen</w>
w is</w>
w as
vor wärts</w>
vor stell
vol can
versch l
ver gleich
um zusetzen</w>
th res
tex ts</w>
ter ia</w>
te ur
syn thetic</w>
ser maßen</w>
sent ences</w>
sch lau
satelli tes</w>
ro t
ridic ulous</w>
res sing</w>
reduc ed</w>
ra ys</w>
qu it</w>
poin ting</w>
per pet
pe te</w>
par ks</w>
pan els</w>
p lot</w>
occas ion
na ked</w>
my th</w>
mor s</w>
lo ws</w>
leth al</w>
le ft-
land ed</w>
krank heiten</w>
ko chen</w>
k et</w>
it äts
in ch</w>
ie -
identi fied</w>
happ ier</w>
grei ft</w>
glob alization</w>
gl asses</w>
ger i
genoci de</w>
geb lieben</w>
ge testet</w>
gan is
g ged</w>
für chten</w>
ft s
fri ed
fl ung</w>
fi le</w>
f lag</w>
expan sion</w>
erinn erte</w>
er hielten</w>
entwick lung</w>
el tern</w>
ein gehen</w>
e al</w>
do x
discover ies</w>
dic tionary</w>
dep th</w>
da ch
crimin al</w>
cr yp
conclu de</w>
con tains</w>
c tions</w>
bedro ht</w>
be et
auf merk
app le</w>
ange kommen</w>
ali en
al ty</w>
aktu ellen</w>
ab y
Tür k
Th ings</w>
Te e</w>
Some body</w>
So ci
Schlag zei
S per
Ru anda</w>
Re zep
Proz ent
Oc ean</w>
Nerven zellen</w>
Nar rator</w>
Nach richten
N in
Mit glied</w>
Mich el
Lu ther</w>
Lie fer
L im
Kon zent
Kno pf</w>
Kapit alismus</w>
Jer usalem</w>
J up
Ital y</w>
Intu ition</w>
Hör en</w>
Him al
Hand eln</w>
H itze</w>
Flie ge</w>
Et wa</w>
Ent stehung</w>
En ga
Eis en
E gal</w>
Dynam ik</w>
Dat a</w>
Be denken</w>
B ul
B log
Aus gaben</w>
Ab fall</w>
A ff
'8 0s</w>
öff nete</w>
wes enheit</w>
wa ff
vorher sagen</w>
vi ously</w>
ver häl
ver brauchen</w>
un end
um welt
thre w</w>
ter te</w>
t u</w>
suggest ing</w>
stor ed</w>
ster ed</w>
st eigen
sp inal</w>
sk ull</w>
sh ore</w>
sexu elle</w>
sensor y</w>
schie ben</w>
schaff te</w>
sau ce</w>
s i</w>
s ang</w>
s .</w>
resili ence</w>
re view</w>
re j
r ent</w>
programm ing</w>
primar ily</w>
predic ted</w>
pla in</w>
passi ve</w>
observ ation</w>
ob li
ob jective</w>
mis st</w>
men gen</w>
kti ert</w>
kompliz ierte</w>
kl ingen</w>
kill er</w>
k lear
k ic
it ous</w>
inv ent
inkl usive</w>
i di
hall u
gr ass
gi ert</w>
gi a</w>
g a</w>
füh lten</w>
fo un
fe deral</w>
fan gs</w>
ett i</w>
er fordert</w>
em power
ele gan
el s
e tic</w>
e ded</w>
druck s
dist ur
dis ap
di ve</w>
di a</w>
d ress</w>
cour t</w>
cor als</w>
cop yright</w>
con fron
ch el
cer ti
c ab
br äu
berüh mt</w>
be wahr
be tre
bah n
b r</w>
attrac tive</w>
at tract</w>
artic les</w>
arti stic</w>
anzu gehen</w>
algorith m</w>
ab sur
Wel trau
Um gang</w>
Therap ie</w>
TED Talks</w>
T es
Sti lle</w>
Spiel zeug</w>
Sequ enz</w>
S top</w>
Quad rat</w>
Pri vi
Pra xis</w>
P hosp
O pen
N one</w>
Mo unt</w>
Mitt leren</w>
M es
Letz tes</w>
Kö pfen</w>
Kö pfe</w>
Ill usion</w>
Höl le</w>
HI V
Go vern
Glüh bir
G as
Fo tograf
Flüs sigkeit</w>
Fahrra d</w>
Ethiop ia</w>
Eing ri
Di esen</w>
De partment</w>
Blick winkel</w>
Bl ü
B äumen</w>
B ier</w>
B einen</w>
Auf stieg</w>
9 9
4 3</w>
3 0,000</w>
15 -
überprü fen</w>
über lebt</w>
zukünf tige</w>
wohl hab
wissenschaft lich</w>
wel come</w>
weap on</w>
wat ts</w>
w ash</w>
vor n</w>
ver tre
ver mittelt</w>
unter halten</w>
under lying</w>
un ion</w>
ump ing</w>
um ent
tri be</w>
teen agers</w>
tar gets</w>
t ü
t nis
suppor ted</w>
sta irs</w>
st ausch</w>
sou thern</w>
smo king</w>
sk y
sen ken</w>
schreck liche</w>
repor ts</w>
religi ösen</w>
rei ste</w>
re fri
refri ger
re ef</w>
rar ely</w>
r ut
profi tieren</w>
predic tions</w>
pp en
por tion</w>
percei ve</w>
par ties</w>
out put</w>
num er
nar row</w>
nachhal tig</w>
n in
n es
mus lim
mul tin
mechanis ms</w>
me al</w>
m .</w>
life -
less ly</w>
kon tin
k ogni
k e-
jen ige</w>
inter vention</w>
inst re
inn eren</w>
ing ung</w>
imp acts</w>
ic on</w>
hoff nungs
har vest</w>
hand ed</w>
hal b
graph y</w>
gl ad</w>
gel äh
ge gessen</w>
foc using</w>
experim ental</w>
et ts</w>
er wachsen
er richten</w>
emerg ed</w>
elec ted</w>
ei gung</w>
e da</w>
dom ain</w>
den de</w>
d ome</w>
con vic
ch mals</w>
car ing</w>
bewe gte</w>
besch ützen</w>
bes ie
bas ierte</w>
b acks</w>
autom o
aus gebildet</w>
au lt</w>
at e
asch en
app en</w>
aller y</w>
all gemeinen</w>
ali ge</w>
ak ed</w>
af el</w>
Wis sens</w>
Wer ten</w>
Wei ßt</w>
U-B oo
Tr ink
Th un
Temp o</w>
Sü ß
Stäm me</w>
Studi um</w>
Sto ff</w>
Ster nen</w>
Statist ik</w>
Stand punkt</w>
Sta tion</w>
St amm</w>
Ro t</w>
Re p
Po st</w>
P yrami
P ause</w>
Ne ver</w>
Montan a</w>
McDon ald</w>
Mark eting</w>
Mah l
Li sten</w>
Li chter</w>
L ak
Kre b
J ane</w>
Hor izon
HIV /
Grü n</w>
Ger ade</w>
F utter</w>
Depres sionen</w>
Dar win
D un
Coc a-
Blät ter</w>
Blo g</w>
Bes u
Beh ör
B at
Auswirk ung</w>
Ange bot</w>
An erkennung</w>
9 8</w>
3 8</w>
äu fer</w>
ärm sten</w>
ähn liches</w>
zw öl
zusätz liche</w>
zei chnung</w>
we h</w>
wan dern</w>
w -
virtu ellen</w>
vi erten</w>
ver arbeiten</w>
ut an</w>
tro gen</w>
transl ated</w>
trans fer</w>
ti l
ter ed</w>
teil nehmen</w>
sub -
sta aten</w>
son der
so ap</w>
sim ulation</w>
sh it</w>
schwieri gen</w>
schn elle</w>
repres entation</w>
re venue</w>
psych op
pro sper
pro posed</w>
po ster</w>
photograph ed</w>
pho sp
par tly</w>
p ump</w>
origin ally</w>
open- source</w>
on ia</w>
on g
ogra fie</w>
neu ral</w>
lu x
ll ed</w>
le verage</w>
konstru ieren</w>
kl us</w>
kan nten</w>
k ter</w>
k ick</w>
inv as
inev itable</w>
in ches</w>
ima gery</w>
ill ed</w>
ier ungen</w>
iel le</w>
hin durch</w>
he ter
gui de</w>
gewöhn liche</w>
gewöhn lich</w>
gewinn t</w>
gesch ri
ger weise</w>
ge füllt</w>
g ner</w>
g ly</w>
fro g</w>
freu en</w>
fortun e</w>
for gotten</w>
fo und
flo ws</w>
fer tigen</w>
f its</w>
expla ining</w>
expec tancy</w>
eri es</w>
er h
er füllt</w>
einz iger</w>
ein zusetzen</w>
dum m</w>
dist ingu
dialog ue</w>
di gte</w>
datab ase</w>
da tions</w>
d ney</w>
cros sing</w>
confi dent</w>
comm is
ch erung</w>
ch am
c ep
bu ried</w>
br ush</w>
bio diversity</w>
at titude</w>
assi gn
ar r
angeneh m</w>
ange passt</w>
allge meine</w>
ag te</w>
Wohl befinden</w>
Wi thin</w>
Wer ke</w>
Welt all</w>
Wech sel
W elle</w>
V it
TED Talk</w>
T än
St or
Schul ter</w>
Samm lung</w>
Re cht
Pun kten</w>
Poli zei
Po ster</w>
Parkin son</w>
P fa
Oc tober</w>
Mensch lichkeit</w>
Le wis</w>
Lau t
L as
L ag
Ko operation</w>
Kenne dy</w>
J oh
Ge brauch</w>
Fl ag
Fig uren</w>
Er wärmung</w>
Er schein
E D</w>
Blut gef
Bei trag</w>
At em</w>
Ar ctic</w>
Alas ka</w>
Abhän gigkeit</w>
A th
A poll
A gen
5 9</w>
199 7</w>
199 0s</w>
ü hr
är m</w>
zusätz lich</w>
zu stand</w>
wunder schön</w>
wh is
vie wed</w>
ver heirat
ver braucht</w>
v ital</w>
unterschei det</w>
unter richt</w>
u re
tu mors</w>
tt ed</w>
transl ation</w>
ti ka</w>
terror ist</w>
tal en</w>
t y-
t ollen</w>
suggest ed</w>
stru ggling</w>
st il</w>
sle eping</w>
sitz e</w>
sil ly</w>
si ts</w>
shel f</w>
ser ver</w>
se chs
sch lei
sch ein</w>
samm elt</w>
rä um
ri cher</w>
pur sue</w>
p ä
oxy tocin</w>
oper ations</w>
nutz ten</w>
nur ses</w>
n esses</w>
my th
micro -
mat rix</w>
lan dete</w>
kon kre
kombin ieren</w>
kin der</w>
key board</w>
k ern</w>
ip ulation</w>
immedi ate</w>
il es</w>
ig sten</w>
ide mi
i ten</w>
her d</w>
h ill</w>
gere det</w>
ger ade
ge ograph
gather ing</w>
fäl lig</w>
fun ktion</w>
for mu
fan tas
f ought</w>
f iger</w>
exten ded</w>
ex tend</w>
es thes
erzäh lten</w>
erle digen</w>
en es</w>
en der
el eg
dri vers</w>
dr ü
do zens</w>
dis cher</w>
da mag
d bar</w>
comple ted</w>
com mon
colon ies</w>
co ok
categ ory</w>
bo und</w>
bo om</w>
bi c</w>
bere chti
bel ong</w>
bed ingungen</w>
be zogen</w>
assem bly</w>
archit ek
anxi ety</w>
ange trieben</w>
analy ze</w>
an ic</w>
an geschaut</w>
al co
aggres sive</w>
ach tet</w>
Zeit ungen</w>
Z ut
Wei ter
W her
V ie
Transp ort
Tha iland</w>
Technolog y</w>
Steu er
Ste wart</w>
Schau spieler</w>
Sch am</w>
S A
Russi an</w>
R atten</w>
On kel</w>
Off ensicht
Ob viously</w>
Nor damerika</w>
N ami
Leh re</w>
La ke</w>
L K
Ku gel</w>
Krie ge</w>
Josh ua</w>
Gri ppe</w>
Gir l</w>
Gen ome</w>
Fernseh er</w>
Febru ary</w>
F os
Eur o</w>
E S
Den noch</w>
Coun cil</w>
Char akter
C anyon</w>
Beweg ungs
Bei de</w>
Bau ch
B is
B ah
Ar ten
Ani mation</w>
199 4</w>
ö l</w>
äch er</w>
zwei tes</w>
y fish</w>
wunder schönen</w>
w inning</w>
verhin dert</w>
ver mehr
ver lang
ursprün gliche</w>
up set</w>
ungspro zess</w>
tru gen</w>
tr ons</w>
toll es</w>
ti stic</w>
th a</w>
tel es
t une</w>
success fully</w>
sub tle</w>
st ück
spiel ten</w>
sp iegel</w>
sor gt</w>
soldi er</w>
smar ter</w>
sho ts</w>
shel ter</w>
shar p</w>
sh opping</w>
schaff ten</w>
resist ant</w>
res on
regi me</w>
re gung</w>
r ul
qu est</w>
prof its</w>
pro vis
pris on
pr äch
pos al</w>
pl ing</w>
p her
p ause</w>
ow ner</w>
on om
off ici
nachhal tige</w>
min es</w>
mill enni
meas ures</w>
m mer
lo ads</w>
li erung</w>
künst liche</w>
komplex er</w>
kom isch</w>
kl at
kehr te</w>
k ran
j ac
instruc tions</w>
industri es</w>
gu cken</w>
glück liche</w>
fl ös
fing er
fer tigt</w>
fab ulous</w>
f es</w>
et ed</w>
er zielen</w>
er al</w>
eleg ant</w>
ed ges</w>
e chter</w>
dolph in</w>
disc uss</w>
dinosau r</w>
diffic ulty</w>
con tain</w>
collabor ative</w>
co vering</w>
clo sing</w>
clim bing</w>
cle ver
chnolog ie</w>
char ges</w>
can e</w>
c able</w>
be endet</w>
bab we</w>
b ole</w>
aus sen</w>
au l
ari th
ap a
and au
al tru
aktivi eren</w>
Zei chnungen</w>
W oo
Vol ks
Un abhän
Täu schung</w>
T -S
Symmet rie</w>
Syl via</w>
Strah lung</w>
Sti ck
S ätze</w>
S po
S ong</w>
Ro s
Ri cht
Par tei
P T
P I
Mei ster
Lö wen</w>
Kön nte</w>
Kur z
Kom promis
Jeff er
J ähri
Inst all
Hin weis</w>
H ip
Gra vit
Gleich heit</w>
Gl am
Geschäft smod
Geschle cht</w>
Entschul digung</w>
D R</w>
Christi an</w>
Auf trag</w>
Ar chi
All gemeinen</w>
Al ko
Abent euer</w>
5 8</w>
4 4</w>
4 ,
über ein
y or</w>
win zige</w>
what so
whatso ever</w>
wert voll</w>
we ek
w ins</w>
w aschen</w>
viel erlei</w>
ver anst
v ements</w>
ut ral</w>
ungewöhn lich</w>
un certainty</w>
tu des</w>
treat ments</w>
train ieren</w>
ti an</w>
thro wing</w>
tel escope</w>
sus pect</w>
sub stan
sta dium</w>
st ün
spectac ular</w>
sicher stellen</w>
shri mp</w>
shi fting</w>
sch wei
sch izophren
ri ers</w>
rhyth m</w>
rei ßen</w>
radic ally</w>
ra gen</w>
qu ot</w>
push ed</w>
proble me</w>
pro zess</w>
pre chen</w>
po tent</w>
perfe kten</w>
per mission</w>
p um
p ful</w>
ol era</w>
niedri g</w>
ni k</w>
ne utral</w>
n ör
musik al
mix ed</w>
min d-
meth ane</w>
lie fer
li der</w>
la p</w>
l ler</w>
l atz</w>
k rat
k ehr</w>
irgend was</w>
irgend ein</w>
institu tion
i en
hunder ttaus
hel pful</w>
h itting</w>
h ed</w>
gol den</w>
gig anti
gef logen</w>
gar age</w>
fragi le</w>
flüs si
finanz iert</w>
finan zieren</w>
figu ration</w>
fabri c</w>
fa vor</w>
fa thers</w>
f usion</w>
f i</w>
f ear
exter nal</w>
exponenti al</w>
ersch ien</w>
eri en</w>
enti erten</w>
enter ing</w>
end sten</w>
en sure</w>
el ang</w>
effizi enter</w>
durch zuführen</w>
durch s</w>
dra matisch</w>
dies mal</w>
diagno sed</w>
den -
demon stration</w>
deli ber
de fe
d sch
d eln</w>
coun ting</w>
cl ed</w>
carto ons</w>
bro chen</w>
bra in
br y
big u
bewer ten</w>
be gun</w>
be denken</w>
be ars</w>
außergewöhn liche</w>
aus führen</w>
ar med</w>
anzu schauen</w>
ans as</w>
am ie</w>
ak adem
ag gre
ag ent</w>
ag an</w>
a qu
a iss
Z wan
Wor l
Win kel</w>
Wi th
Wah n
W K</w>
Untersu chungen</w>
Tragö die</w>
Th ird</w>
T enden
Sum me</w>
Si x</w>
Sex u
Schni tt</w>
Sch lange</w>
Sauer stoff
Rich ter</w>
Rei chtum</w>
Rei ch</w>
Re por
Po st
Para dig
Par tei</w>
Ok tober</w>
O hr</w>
Me ere</w>
Man ager</w>
Lie bes
LE D</w>
L änge</w>
Köni gin</w>
Kön nten</w>
Kla vier</w>
K ansas</w>
Journ alisten</w>
Ho sp
Gest altung</w>
Flä chen</w>
Febru ar</w>
Fabri ken</w>
Erfol gs
Einfa ch</w>
Effek te</w>
Di ffer
Di chte</w>
De z
Cra ig</w>
Coca- Cola</w>
Chi p</w>
Ch romo
Betra chten</w>
Banglad esh</w>
B ess
B ang
An zeichen</w>
Aller dings</w>
6 ,000</w>
3 -
-S ah
ön e</w>
Ä thiop
wunder vollen</w>
win ds</w>
wheel chair</w>
west liche</w>
weiter machen</w>
wat t</w>
war fen</w>
ver tik
vac uum</w>
v ar
us ion
ur ge</w>
unbelie vable</w>
un heim
tä gliche</w>
tu ri
trajec tory</w>
ti liz
ti cket</w>
temp orary</w>
staat lichen</w>
st y
st ones</w>
son sten</w>
she ets</w>
sen ior</w>
sel b
se k
sch il
sc ores</w>
reve al</w>
r is</w>
promo te</w>
programm iert</w>
profi le</w>
pre tend</w>
pp te</w>
po et</w>
pf ung</w>
ori al</w>
open ness</w>
oh len</w>
nutri tion</w>
nur se</w>
neu lich</w>
ner ve</w>
n ac
minist erium</w>
mer ely</w>
m in</w>
lin ke</w>
la ke</w>
l ing
krie ge</w>
kl ü
j ü
is ierung</w>
irgend einer</w>
intu ition</w>
interest ingly</w>
interessan tes</w>
inst al
industri elle</w>
in t
il er</w>
häu fig
her ein</w>
her an</w>
he bt</w>
hal ben</w>
gi e
gesch lossen
ger issen</w>
genau e</w>
ge dreht</w>
gan g
foo ds</w>
f ung
f a</w>
est e</w>
erle digt</w>
er re
er fuhr</w>
engine ered</w>
eleph ants</w>
el op
ein stellen</w>
eh st</w>
e gic</w>
drei mal</w>
doc uments</w>
der i
dd le-
d ged</w>
conver t</w>
conf used</w>
cht est</w>
choo sing</w>
ch ief</w>
cap abilities</w>
bur ger</w>
bra tion</w>
ble -
bel ast
be ur
bas eball</w>
bar t</w>
b z
aus sah</w>
au st</w>
ar ter
appe ar
ange h
an ol</w>
an gem
ag on</w>
Zu hör
Wir d</w>
Wet ter
W ellen
Ver trau
Ver nun
Ven us</w>
V iel</w>
Ur he
Tä tigkeit</w>
Tri cks</w>
T ed</w>
Som it</w>
Soci ety</w>
Sel b
Sco t
S c
Rest aurants</w>
Re du
R -
Proz esses</w>
Portu gal</w>
Poli tik
Pe ace</w>
P y
P ul
P iz
P ack
Optim ismus</w>
Off enheit</w>
Nan o
Maga zin</w>
Ku h</w>
Kohlen dioxid</w>
Klu ft</w>
Klima wand
K ür
J ag
Invest ition</w>
Inter view</w>
I M
Hü gel</w>
H ut</w>
Glück licherweise</w>
Gesundheits system</w>
Gegen stand</w>
Fü ßen</w>
Fran c
Fe edback</w>
F ör
Er lau
En th
Dre h
D AR
C le
Brü der</w>
Bl ack</w>
Bedürf nis</w>
Be wohner</w>
Be at
Band breite</w>
B each</w>
Amei se</w>
A G</w>
197 0s</w>
10 0-
- to-
'9 0s</w>
äu ft</w>
wirk ungen</w>
wirk ung</w>
wid men</w>
wi tz
wi llig</w>
verlan gt</w>
verkauf te</w>
verfü gen</w>
ver dopp
v ine</w>
ush ed</w>
ts un
trau ri
tradi tions</w>
tis su
ti ps</w>
ter ror</w>
t we
t one</w>
surpris ingly</w>
städ tischen</w>
stran ger</w>
statt findet</w>
statt finden</w>
st ur
spezi fische</w>
sou p</w>
sla very</w>
sion s
sinni g</w>
si sters</w>
see king</w>
schi ff</w>
sac red</w>
ri vers</w>
remember ed</w>
reli able</w>
rec ep
re ver
re build</w>
ra pid</w>
quali ties</w>
pre p
prep are</w>
pl ug</w>
pe op
p ole</w>
os is</w>
organiz ing</w>
oc curr
o ton
mäch tige</w>
mit tag</w>
metabo li
ma cher</w>
m ten</w>
loc ated</w>
lo h
law yers</w>
l ese</w>
kon vention
j ell
ish ment</w>
individu elle</w>
inc en
in mitten</w>
in fl
i ed</w>
hon ey</w>
high- tech</w>
her ein
gradu ally</w>
glam orous</w>
gewis sermaßen</w>
geschä ft</w>
gel d</w>
frü h
for sch
fin ed</w>
ff ekt</w>
fan ge</w>
fan cy</w>
fail ing</w>
eth n
es -
el f</w>
el derly</w>
ek tion</w>
e ath</w>
dr one</w>
dis ch</w>
descri ption</w>
de ar</w>
d gets</w>
curricul um</w>
cra ck</w>
contro versi
conduc ted</w>
con tain
ck s
ck -
chi ps</w>
ch st</w>
ca ke</w>
c ted</w>
bro ad</w>
bri llan
bo s</w>
behör de</w>
beeindruck end</w>
be dienen</w>
be achten</w>
ba th
b nis</w>
aus gewählt</w>
auf recht</w>
atom ic</w>
at ter</w>
ash a</w>
as pi
architec tural</w>
anti bio
an lage</w>
an gles</w>
an dem</w>
all zu</w>
ag anda</w>
adop ted</w>
a der</w>
a a
a .
Zu cker
Z im
With out</w>
Welt bank</w>
W ollen</w>
W hat
W ale</w>
Vor les
Ver sagen</w>
Ver lu
Tur key</w>
To p</w>
Ta i
T w
Super markt</w>
Stör ungen</w>
Sp äter</w>
Skulp tur</w>
Schwan z</w>
Schokol ade</w>
Sch au</w>
S now
S itz</w>
S her
Relig ionen</w>
Reich weite</w>
Re fle
Re den</w>
P unk
Oxy tocin</w>
Orig ami</w>
Op tion</w>
Nullsum men
Nah en</w>
Na z
N ik
Musli me</w>
Mittel punkt</w>
Mit ta
Mis chung</w>
M all</w>
Liebl ing
Lebens qualität</w>
Kre aturen</w>
Kon ver
Kinder sterblichkeit</w>
Kil o</w>
K ris
Jup iter</w>
It alien</w>
Inst itution</w>
Hypo these</w>
Har d
Groß vater</w>
Get rei
Gegen stände</w>
Entwur f</w>
Energie verbrauch</w>
Em pathie</w>
Ein mal</w>
Dut ch</w>
Dan ny</w>
Chirur g</w>
C lar
Bro w
Bo den
Ber ühr
Be sten</w>
Bang al
Bab y
Aut oren</w>
Ale x</w>
Ac ademy</w>
Aben dessen</w>
8 0ern</w>
überwäl ti
ü bt</w>
ö st
Är zten</w>
zu gleich</w>
y outh</w>
wu chsen</w>
woh nen</w>
wah n
w olle</w>
vulner ability</w>
vor an</w>
vermu te</w>
ver sagen</w>
ver doppelt</w>
ver besser
ut t
ungs system</w>
ungeheu er</w>
ul ated</w>
tun a</w>
tran sc
to wer</w>
thres hold</w>
ten ds</w>
ta kul
t less</w>
t ack
syst emen</w>
suff ici
ster eo
stei gern</w>
ste am</w>
st itu
squ ee
spei chern</w>
span n
sp unkt</w>
sp an</w>
si tz</w>
shi pping</w>
sen det</w>
schic kten</w>
rub ber</w>
rest aurants</w>
replic ate</w>
reali zing</w>
re store</w>
r ische</w>
qu een</w>
prü fen</w>
präsenti eren</w>
prä gt</w>
pleas ant</w>
pig s</w>
pe er</w>
paraly zed</w>
pan el</w>
optim ism</w>
od ds</w>
occur s</w>
ob je
nee dle</w>
me ga
magni tude</w>
mag ical</w>
m är
log ical</w>
lau b</w>
la dung</w>
kon kur
ko sm
j agen</w>
is st</w>
invol viert</w>
interpre tation</w>
inst ant</w>
imp ul
ier s</w>
ici ous</w>
hun ting</w>
home work</w>
hilfrei ch</w>
herr scht</w>
ha fen</w>
h h
h -
gr as</w>
gewe be</w>
gesch la
gene tics</w>
gemein nüt
gebäu de</w>
ft es</w>
fir es</w>
finanzi ellen</w>
exten sion</w>
exc it
eu ms</w>
estim ated</w>
entscheiden de</w>
ent gegen</w>
en ge</w>
en ables</w>
emplo yment</w>
ei gh
do od
discipl ine</w>
dent ally</w>
competi tive</w>
ck ily</w>
cent r
car di
by e</w>
bom bs</w>
bo ss</w>
bl ö
berühm ten</w>
belie bt</w>
bed ing
be treten</w>
be grü
b igkeit</w>
auf geben</w>
audi o</w>
ath on</w>
at ar</w>
arri ve</w>
anges ichts</w>
aiss ance</w>
ac ou
Z igar
Viel zahl</w>
Verletz ungen</w>
Verein ten</w>
V ier</w>
Türk ei</w>
Tit el
Te pp
Stim mt</w>
Sta hl</w>
Sonnen system</w>
R ad</w>
Pflan zen
P ur
O ut
Nutz er</w>
No twen
Mil o</w>
Mich ig
Mam mo
Ma ße</w>
Ly n
Lie der</w>
Leist ungen</w>
L ücke</w>
L HC</w>
Kä fer</w>
Ki ds</w>
Kan di
John ny</w>
Je den</w>
I l
Ha ar</w>
HIV/ AIDS</w>
Gü te</w>
Genau so</w>
Ge fahren</w>
G anz
Früh ling</w>
Fel sen</w>
Fantas ie</w>
Fahr zeug</w>
Erfin der</w>
Energi en</w>
E-Ma ils</w>
Dis ney</w>
Diagno se</w>
Ch urch</w>
C r
C el
C I
Bla u</w>
Besch äf
Besch rei
Bangal ore</w>
Au flös
Algorith mus</w>
5 2</w>
198 0s</w>
über lassen</w>
Über zeugung</w>
wunder voll</w>
war ning</w>
w und
viel mals</w>
ver hält</w>
ussi onen</w>
ursprün glichen</w>
uni gen</w>
u e
typ ing</w>
transp l
transpl ant</w>
tr ash</w>
tion ally</w>
ti tudes</w>
thre ats</w>
tenden cy</w>
substan ti
strat egic</w>
str äger</w>
sto ß</w>
stat tet</w>
star tete</w>
st ap
st al
spek takul
smo oth</w>
sich eren</w>
sho cked</w>
sha dow</w>
sch ütz
sa tionen</w>
re fer</w>
re det</w>
qu er</w>
pro found
profound ly</w>
prin ted</w>
phosp hor
pharmac eu
per n</w>
pas ste</w>
particip ation</w>
pa irs</w>
p ap
nu cle
mor ality</w>
mit teilen</w>
mira cle</w>
m old</w>
lie fen</w>
liber al</w>
li ons</w>
leiden schaft
law yer</w>
kä me</w>
kommen den</w>
k able</w>
it or</w>
invest ed</w>
intri gu
ins ect</w>
influ enced</w>
individu ellen</w>
incen tive</w>
in te</w>
in ate</w>
imag ing</w>
im i
ig n
häu figer</w>
histor ic</w>
han del</w>
großarti ger</w>
gr enzen</w>
go d</w>
gesp ei
ger in</w>
ger -
geb lich</w>
g ru
fres sen</w>
fotograf iert</w>
fort geschri
fes th
extin ction</w>
experi encing</w>
exp ecting</w>
es ie</w>
er fasst</w>
er fahr
en sion</w>
ein schließlich</w>
ec e</w>
ear ning</w>
dis crimin
defini tiv</w>
curren cy</w>
cros s-
contemp orary</w>
conserv ative</w>
con sul
com ment</w>
col ored</w>
clo thing</w>
che ese</w>
chan nels</w>
bu g</w>
bri tischen</w>
bott les</w>
bla h</w>
bl ät
besi des</w>
berühm te</w>
berech net</w>
ber gen</w>
beobach tete</w>
ben eath</w>
bemerkens werte</w>
be zieht</w>
aufmerk sam</w>
ap or
an zen</w>
an stellen</w>
an kommt</w>
an halten</w>
am at
ach ing</w>
a ero
Wol ke</w>
Vis u
Verzwei flung</w>
Um gebungen</w>
Teles kop</w>
Su ch
St ol
Schreib tisch</w>
S imp
Ro yal</w>
Rei hen
Regen wald</w>
R ollen</w>
R in
Po esie</w>
P ut</w>
P ep
Or gan</w>
O ft</w>
N ick</w>
Mitta gessen</w>
Lap tops</w>
La gos</w>
L O
Kon zer
Kom p
Kol onie</w>
Jeffer son</w>
J C</w>
Ignor anz</w>
Hinder nisse</w>
High -
Heim at</w>
Gen en</w>
Frie d
F alle</w>
Explo sion</w>
Ex tra
Erfin dungen</w>
Er ziehung</w>
Enga gement</w>
En tro
Ein richtung</w>
Disk ussionen</w>
Dim ension</w>
Dal ai</w>
Budd ha</w>
Bro ad
Beschrei bung</w>
Bes itz</w>
Bes it
Beru fs
Ber gen</w>
Ban k
Bal ance</w>
B ol
Auf zeichnungen</w>
Arz nei
Archit ekt</w>
Anrei ze</w>
An wä
8 0
20 15</w>
-Sah ar
ö n</w>
Über gang</w>
Ö k
wor ms</w>
wit ness</w>
well en
wa days</w>
vi an</w>
verur teilt</w>
verk ehr</w>
ver sen</w>
un fair</w>
un endlich</w>
un en</w>
u biqu
trä um
transpor tieren</w>
tran si
tr äch
to ile
ti a</w>
th west</w>
te ur</w>
tan gible</w>
tack le</w>
suff ered</w>
su ck</w>
stra ight
stec kten</w>
stan de</w>
st rie
sp in</w>
sozi ales</w>
simul taneously</w>
scan ner</w>
s ein
s alt</w>
rema ining</w>
rema ined</w>
re chts
re al-
ra h
profession als</w>
pre fer
ph ony</w>
pandem ic</w>
ow nership</w>
ou ter</w>
ob serve</w>
o de</w>
ne at</w>
nam en</w>
mp tions</w>
m asse</w>
läch erlich</w>
li on</w>
l or
krei sen</w>
kontro lle</w>
kon serv
instre am</w>
inst antly</w>
inno cent</w>
inclu ded</w>
hypo thesis</w>
hier für</w>
hallu cin
glam our
gene tisch</w>
gar bage</w>
g aps</w>
för dert</w>
fol ding</w>
facili ties</w>
fac tories</w>
f et
explo sion</w>
exc eption</w>
et tel</w>
erstaun lichen</w>
entsch lossen</w>
engli schen</w>
enab led</w>
eingesch rän
eg g</w>
e ch
dra wings</w>
dr ones</w>
down load</w>
dien st</w>
deta illi
deta iled</w>
der zei
de ck</w>
d ü
cy cles</w>
comm and</w>
chan ces</w>
billi ger</w>
bet onen</w>
ber ichtet</w>
be wirkt</w>
b utes</w>
b aum</w>
analog y</w>
an giogen
aktivi ert</w>
air planes</w>
ade qu
adap ted</w>
a do</w>
Zusam men</w>
Zi vil
Y u
Wär me</w>
Wohl tä
Wieder auf
Wider spruch</w>
What ever</w>
W ün
Vorher sagen</w>
Trop fen</w>
Tro tz</w>
Taus enden</w>
T en
T aten</w>
Spre cher</w>
Sp ut
Sp uren</w>
Sim ulation</w>
Schwer kraft</w>
S I
Rhyth mus</w>
Produ ktivität</w>
Pl äne</w>
Obje kten</w>
O ran
Neu gier</w>
Na i
N C
Maga zine</w>
Ma i</w>
M other</w>
M auer</w>
Lebens raum</w>
Le e</w>
L ärm</w>
L ama</w>
Köni grei
Kur zem</w>
Ku chen</w>
Kreu z
Krank ensch
Koso vo</w>
Kon z
Kl ar</w>
Kei th</w>
Isl ands</w>
Indi ans</w>
Hilfs mittel</w>
Her kunft</w>
Ha i
Gre ek</w>
Glet scher</w>
Gedan ken
Flug hafen</w>
Fel der</w>
F DA</w>
Er forschung</w>
Einzel nen</w>
E din
Dez ember</w>
Del ph
Dan kes
D ic
Be g
Au stausch</w>
Arbeitsp latz</w>
An throp
Amazon as</w>
All tag</w>
5 0s</w>
3 .000</w>
zwei einhalb</w>
zero- sum</w>
zer r
z enten</w>
y p</w>
wo ke</w>
wo durch</w>
wie gt</w>
wid ely</w>
weal thy</w>
virtu elle</w>
viel falt</w>
vergröß ern</w>
v in</w>
un vermei
un able</w>
um her
tter t</w>
tra cks</w>
tr onen</w>
the ast</w>
ter er</w>
temp or
t phone</w>
syst em
sy l
supp orting</w>
sub stance</w>
strei ten</w>
ste ten</w>
ste al</w>
stand ar
sta ying</w>
sper son
sinn voll</w>
signific antly</w>
sicher zustellen</w>
rupp e</w>
ritu als</w>
reduc ing</w>
r ush</w>
pri de</w>
preser ve</w>
pl um
peop les</w>
passen ger</w>
ou ts</w>
ordin arily</w>
or n</w>
optim istisch</w>
op er</w>
ol ine</w>
ol a</w>
obstac les</w>
o ten</w>
nutri ents</w>
nu ts</w>
n test</w>
mysteri ous</w>
moral isch</w>
mo od</w>
ment ation</w>
mem es</w>
mechan ics</w>
lös ung</w>
li ath</w>
kur zer</w>
kl ug</w>
kill s</w>
ka sten</w>
k tiven</w>
k ord</w>
k m
je t</w>
ir ing</w>
grand parents</w>
gewand elt</w>
gewal tige</w>
gesellschaft lichen</w>
gemä ß</w>
ge zeichnet</w>
ge eignet</w>
ge ben
ga ined</w>
g y
g rie
g no
führ enden</w>
freund lich</w>
fre ut</w>
fol gten</w>
fol gen
flu g
flo wing</w>
flo gen</w>
fer tiliz
expla ins</w>
ex hi
europä ischen</w>
et on</w>
establi shed</w>
ess oren</w>
er rors</w>
entrepren eur</w>
ent le
ent en
eng ines</w>
en di
en counter
em bo
el and</w>
ei ls</w>
e Bay</w>
durchschnitt lich</w>
di t</w>
dem ands</w>
de uten</w>
dau er</w>
dar zustellen</w>
d son</w>
contra dic
compassi onate</w>
compar ison</w>
cl usive</w>
cl ay</w>
c tu
c ous
bur ned</w>
bran ch</w>
beg inne</w>
be äng
b on</w>
b ere</w>
b ell</w>
auth orities</w>
assu mptions</w>
ar ray</w>
al itäten</w>
air port</w>
ag in
advent ure</w>
adel phi
accep table</w>
a than</w>
W ho
Vortra gs</w>
Ver mögen</w>
Tra de</w>
Tes la</w>
Stand ard</w>
St eine</w>
Spa in</w>
S ame</w>
S ach
Rück en
Pr inc
Phil adelphi
Pf lege</w>
Ober flächen</w>
O EC
Nor way</w>
Nor thern</w>
Mo toren</w>
Michig an</w>
Michel angel
Mel o
Mein ungen</w>
Me dical</w>
Mar ch</w>
Ma c</w>
Le one</w>
Ko ordin
K en</w>
K einer</w>
Jour nal</w>
Imm uns
H mm</w>
Glau be</w>
Glam our</w>
Geschma ck</w>
Ge wohn
E vol
Det ek
Dec ember</w>
C amer
C O</w>
Bürger meister</w>
Blo gs</w>
Best imm
Auflös ung</w>
Auff assung</w>
Astero iden</w>
Anti bio
Ab stand</w>
A ssi
A A</w>
1 2-
überqu eren</w>
über wachen</w>
ö ten</w>
zz a</w>
zu halten</w>
z lich</w>
wür dest</w>
wün schen</w>
wo zu</w>
wi es</w>
w ehr
vorher seh
verzwei felt</w>
versi ons</w>
verbrei tete</w>
ver ständ
unter richtet</w>
um setzen</w>
ulti ma
ul ating</w>
tö tet</w>
tra it</w>
tra ins</w>
tissu es</w>
thre aten
threaten ed</w>
th an
ter ien</w>
sub way</w>
sub si
stro ke</w>
stri ke</w>
sto ck
st ine</w>
spr in
sig nature</w>
setz e</w>
schätz e</w>
schei tern</w>
sand wich</w>
s est</w>
ri cs</w>
ra ff
ra d</w>
r äumen</w>
pur poses</w>
promis ed</w>
prin ter</w>
physici an</w>
pack age</w>
o ch
normal es</w>
no chmals</w>
no -
ni ghts</w>
lö schen</w>
log isch</w>
lo ves</w>
lo cken</w>
lik ationen</w>
le ans</w>
l ügen</w>
klass ische</w>
kl er</w>
is iert</w>
invest ing</w>
initi ally</w>
inf ection</w>
impro ving</w>
il a</w>
ici an</w>
hy bri
hom eless</w>
high way</w>
h ungen</w>
groß em</w>
gr au
glück lichen</w>
gest immt</w>
gel ang</w>
gef il
fre ue</w>
fra ction</w>
fa chen</w>
f on
f eln</w>
erkan nten</w>
er öffnen</w>
ent rop
en danger
el ite</w>
einzi g</w>
ein gestellt</w>
ein geschlossen</w>
eg as</w>
earli est</w>
e ers</w>
e aten</w>
drän gen</w>
drah t
dis gu
det ection</w>
der te</w>
der ing</w>
dam n</w>
d ressed</w>
cre w</w>
cour ses</w>
corpor ations</w>
continu ing</w>
connec ts</w>
conc ert</w>
comp elling</w>
comm ents</w>
com pete</w>
classi cal</w>
cer em
camp s</w>
br inge</w>
bi an</w>
ber au
bei zubringen</w>
bas ieren</w>
bah nen</w>
b lieben</w>
b ands</w>
b al</w>
aw k
auftau chen</w>
auf hin</w>
auf einander</w>
aston ishing</w>
as ks</w>
approach es</w>
an kommen</w>
am er</w>
alog ie</w>
agre ement</w>
ag ents</w>
accoun ts</w>
ab geschlossen</w>
a pers</w>
Zim babwe</w>
Worl d
Wher eas</w>
Völk ermor
T sun
Sud an</w>
Str eit</w>
Spei cher</w>
Sp ec
Schi chten</w>
Sch aff
Reihen folge</w>
Rak ete</w>
R og
R O
Pro be</w>
Privi leg</w>
Phän om
Phili p</w>
Pal äst
P ier
Offensicht lich</w>
Ner ven</w>
Mikro skop</w>
Mat rix</w>
Lit tle</w>
Lehr erin</w>
Krei se</w>
Impf stoff</w>
Hun ger
Herz in
Geheim nisse</w>
Gefäng nis
Gebur ts
Frü her</w>
F und</w>
Edin burgh</w>
E ri
E ll
Dopp el
Die go</w>
Compu ters</w>
Colum bia</w>
Co ke</w>
C ous
Bra d</w>
Besch eid</w>
B ör
B h
Autor ität</w>
At ome</w>
Apoll o</w>
Ap pl
Ange stellten</w>
Al tern</w>
Al pha</w>
Ak adem
Ad res
A stro
A ge</w>
199 1</w>
üs sen</w>
über greif
äl le</w>
zü chten</w>
zz y</w>
zi pl
yo ta</w>
y ield</w>
wüs sten</w>
wir es</w>
wer ben</w>
wa ge</w>
victi m</w>
verdam mt</w>
veget ables</w>
un wahrscheinlich</w>
umge kehrt</w>
u ps</w>
typ ische</w>
trivi al</w>
th or
tau schen</w>
t ät
t ful</w>
studi erte</w>
stron gly</w>
sta unt</w>
st rom</w>
st op
st ein
st ability</w>
sh ine</w>
schätz t</w>
schle chtes</w>
schl uss
sacri f
robo tics</w>
ro tten</w>
ri al</w>
res ul
religi öse</w>
regre t</w>
regi on
re ven
re k
re geln</w>
ra ped</w>
r ings</w>
publi sh</w>
pre ced
pal m</w>
p el
oper a</w>
ob by</w>
musici an</w>
miser able</w>
min i
mi ddle-
mein t</w>
maxim um</w>
mati schen</w>
m ing
lin ing</w>
l ou
l amp</w>
korre kt</w>
komple tte</w>
kein erlei</w>
jum ped</w>
jell yfish</w>
je der
it ems</w>
invest ors</w>
imp ression</w>
imm ense</w>
har vest
ha r</w>
großarti ges</w>
gra m
gentle man</w>
gener ous</w>
gather ed</w>
foo tage</w>
fir men</w>
far ms</w>
ex hau
ethni c</w>
erwäh nte</w>
er fand</w>
en cies</w>
em an</w>
el en</w>
eigent lichen</w>
ei t
ec ological</w>
dro me</w>
dr aussen</w>
dis rup
differ enti
di al</w>
demo graphic</w>
de cor
contri but
compu tation</w>
co at</w>
civi c</w>
categ ories</w>
can opy</w>
bz w</w>
bur den</w>
brü che</w>
bom bar
bewäl tigen</w>
berei tung</w>
ben s
ban den</w>
b ats</w>
ausreich end</w>
aus wei
aus län
auf zunehmen</w>
as sozi
ari ans</w>
anz unehmen</w>
an lagen</w>
an atom
ama z
am bigu
aff ects</w>
ab sichti
Zwei ten</w>
X- ray</w>
We g
W att</w>
Verkehr s
V agina</w>
Un sicherheit</w>
Um frage</w>
Tö chter</w>
To de</w>
Tenden z</w>
T our
T esz
Sym bole</w>
Sun day</w>
Stau b</w>
St att</w>
Sput nik</w>
Span nung</w>
Span ish</w>
Sou thern</w>
So w
Sk ala</w>
Sch wä
Sch lä
Sch ild</w>
Satelli ten
Robo ter
Re z
Radi o
R A</w>
Proje kts</w>
Pit ts
Phar ma
Pat ri
Notwen digkeit</w>
Menschen rechte</w>
L ein
Kredi t
K um
K A</w>
Interak tionen</w>
Inter face</w>
Her angeh
Hau t
H it
Geschichten erzäh
Gar age</w>
G ig
Fl us
F emin
F O
Er schaff
Er nst</w>
E liz
Durch messer</w>
Dev elop
DV D</w>
D ek
Clu b</w>
Bu ches</w>
Bo th</w>
B lau
B P</w>
All gemein
9 7</w>
-Sahar an</w>
- of-
öl ker</w>
zu tief
work force</w>
wis cht</w>
wild life</w>
wat ers</w>
vor kommen</w>
vis ions</w>
verheirat et</w>
vergewal tigt</w>
van ia</w>
v als</w>
u h</w>
u ell</w>
typ ischen</w>
trans form
train iert</w>
to ff
ti sch
ti me-
terri bly</w>
technolog ische</w>
te en</w>
ta tional</w>
syl vania</w>
stän dige</w>
straight forward</w>
stim me</w>
steu ert</w>
st itution</w>
sorgfäl tig</w>
some day</w>
soci ally</w>
sm ann</w>
sin ken</w>
sha hi
sh ilfe</w>
se ktor</w>
scop ic</w>
schie f</w>
scen ario</w>
sc ar</w>
sam es</w>
s ale</w>
res em
repräsenti eren</w>
refuge es</w>
reali stic</w>
re minds</w>
re cover</w>
ra pe</w>
r ant</w>
pro ced
proced ure</w>
predic tion</w>
pl ates</w>
ph y
niem andem</w>
masch inen</w>
manufac tur
lo ck
ligh ten
li ger</w>
lei tung</w>
kti ver</w>
kompliz ierter</w>
klin ische</w>
k in</w>
install ation</w>
inev it
industri ellen</w>
impres sive</w>
i to</w>
hor mon
hi ge</w>
her stellt</w>
hei ße</w>
hear t
health ier</w>
hand elte</w>
gän ger</w>
go ds</w>
gerei st</w>
gere cht</w>
gener ating</w>
gel ingt</w>
ge ar</w>
g uns</w>
g ases</w>
fru strated</w>
fre ely</w>
fr öh
for got</w>
far ming</w>
fantast ischen</w>
fa te</w>
exper tise</w>
exp lic
excit ement</w>
excell ent</w>
et own</w>
esthes ia</w>
erweiter t</w>
er staunt</w>
er ec
enti n</w>
ent sprechend</w>
endanger ed</w>
encoura ged</w>
emplo yed</w>
ell a</w>
e z</w>
dr über</w>
distinc t</w>
disco vering</w>
deser ve</w>
de vil</w>
cy clo
cu ts</w>
cro p</w>
commer ci
com bat</w>
class rooms</w>
citi zen</w>
chti gen</w>
chimpanz ee</w>
ch ön</w>
c tica</w>
bu re
bran nt</w>
beschle unigen</w>
b öse</w>
aus wählen</w>
auf stehen</w>
au stau
assem ble</w>
arre sted</w>
approach ing</w>
anzu wenden</w>
amp li
aller erst</w>
akzep tiert</w>
ag h
addic tion</w>
addi tional</w>
ab gele
Zeh n</w>
Wörter buch</w>
Wi de</w>
Wat ch</w>
War ren</w>
War en</w>
W ein
Ver pflich
Vene zu
V egas</w>
Un glaub
U shahi
Transp ort</w>
Stand ards</w>
St abilität</w>
Spie gel
Ser vice</w>
Sen dung</w>
Se e
Sci enti
Schli mm
Sch ie
Sch alter</w>
S tran
S li
Roll stuhl</w>
Robo tern</w>
Psych ologen</w>
Programmier er</w>
Pol y
Philadelphi a</w>
Per u</w>
Mo de
Man agement</w>
M ich</w>
Leist ungs
L oo
Kop ie</w>
Komment are</w>
Klimawand els</w>
Je doch</w>
Inter views</w>
Individu um</w>
Ind us</w>
Hosp ital</w>
Groß eltern</w>
Gri ff</w>
Gr as
Ge ben</w>
Fett lei
Fa kt</w>
F ür
F ett</w>
Evol ution
Entschei d
Elektron ik</w>
ED I</w>
Dau men</w>
Daten bank</w>
Cour t</w>
Computer -
Chirur gen</w>
Car l</w>
Bu il
Beh aup
Be feh
Be e
Ball on</w>
Arbeitsp lätze</w>
Antar ctica</w>
A sh
A T
A O</w>
8 6</w>
6 4</w>
4 .
200 ,000</w>
199 3</w>
1, 5</w>
1 1
äl testen</w>
Über zeug
zwöl f</w>
zutief st</w>
zu einander</w>
zei chn
z ier
z ent</w>
wh ol
wh o
wechsel t</w>
war st</w>
wal t</w>
wachsen de</w>
vi br
verschm utzung</w>
verrück ten</w>
verbr ennen</w>
ver sagt</w>
ven tionen</w>
v agina</w>
ungs weise</w>
un cle</w>
ultra viol
ubiqu itous</w>
tsun ami</w>
transpor tiert</w>
ton gue</w>
tief greif
syn thes
survi ved</w>
stre cken</w>
strah len</w>
str ating</w>
stor age</w>
st ä
sli me</w>
sil ver</w>
sen der</w>
se as
schwa ch</w>
sch rau
sacrif ice</w>
ro se</w>
relig ions</w>
reason able</w>
re placed</w>
re bel
r über</w>
r uss
r ump
portra it</w>
phenomen a</w>
phan tom</w>
per formed</w>
pen et
pa d</w>
on i
occasion ally</w>
o ck</w>
n ell</w>
männ liche</w>
merk wür
mensch lich</w>
mathematici ans</w>
man agers</w>
man ager</w>
ma cy</w>
li ament</w>
legiti mate</w>
le ep</w>
landsc apes</w>
l ingu
l an</w>
klein eren</w>
k ognitive</w>
k o</w>
jud gment</w>
je wel
intervie wed</w>
insi ghts</w>
impro ved</w>
il ty</w>
ig ung</w>
i ous</w>
i da</w>
human -
histor ischen</w>
hil fe</w>
hab it</w>
gra vit
gr ä
glob aler</w>
gewal t
gesch ätz
gemein schaft
gel ben</w>
ge folgt</w>
g ated</w>
g ase</w>
fu er</w>
fl our
fa stest</w>
ey ed</w>
et ten
estim ates</w>
er eien</w>
enz eit</w>
entrop y</w>
einzigarti ge</w>
dop amine</w>
do -
deu tet</w>
dest iny</w>
deli very</w>
da k
d les</w>
contin ents</w>
comp re
co operate</w>
co ole</w>
co ast
circu its</w>
ca ves</w>
bran ches</w>
br eit</w>
bor ed</w>
blo wing</w>
biolog isch</w>
beäng sti
besch ei
belie b
begri ffen</w>
be ating</w>
bar ung</w>
auf nahmen</w>
at a</w>
ari ties</w>
appear ance</w>
an tic</w>
al ie</w>
administ ration</w>
ach tung</w>
ab el
a thei
a king</w>
Wort es</w>
Wol fra
Woh nung</w>
Wi chtigkeit</w>
Ver rück
V e
Urkn all</w>
Un gefähr</w>
Tok yo</w>
Te chn
Tanz ania</w>
T iger</w>
T al</w>
Sub stanz</w>
Sto ck</w>
Sti pen
St ri
Solar energie</w>
Sol che</w>
Skla ver
Secon dly</w>
Sec urity</w>
Se chs</w>
Schl uss
S B</w>
Pro te
Pro fi
Penn sylvania</w>
Nat asha</w>
Nami bia</w>
N SA</w>
Man i
M ut
K yo
K lar
It alian</w>
Invest oren</w>
Indi ens</w>
Horizon t</w>
Hand lung</w>
Ha i</w>
H ad
Gew inner</w>
Ge wis
Fotograf ie</w>
Fli ck
Fi f
Far m</w>
Entro pie</w>
Eng ine
En des</w>
Ein wohner</w>
D. C.</w>
D ef
Ch an
Bere chnung</w>
Beobach tung</w>
B ären</w>
Anweis ungen</w>
An alogie</w>
Al though</w>
6 0
197 5</w>
1 40</w>
ö r</w>
ß ig</w>
zi sten</w>
y ourselves</w>
wor m</w>
woll t</w>
wahr haf
wachsen den</w>
wa chte</w>
vor s</w>
ver setzen</w>
us e
un preced
un happy</w>
un a</w>
trans forming</w>
tra gic</w>
to es</w>
thum b</w>
teen ager</w>
techn isch</w>
tatsäch lichen</w>
succe eded</w>
stru kturen</w>
spea ks</w>
small est</w>
sk al
six -
si r</w>
sel fish</w>
secre ts</w>
schreck lichen</w>
schni tte</w>
sch äd
s hal
ri ll
rati o</w>
propor tion</w>
prof ession</w>
pro ven</w>
pro ph
pro je
prison ers</w>
pl er</w>
physici sts</w>
pf ei
p ein
opar dy</w>
offic er</w>
off ices</w>
o '
o' clock</w>
non profit</w>
near by</w>
ne ys</w>
na tive</w>
mith ilfe</w>
minim um</w>
mind set</w>
mer kte</w>
mathemati sche</w>
magni fic
m te</w>
m ass
lok al</w>
lich st</w>
li zieren</w>
lei sch
le er</w>
lau ter</w>
kö mm
konsum ieren</w>
klet tern</w>
je denfalls</w>
j azz</w>
inter ior</w>
ing o</w>
in dische</w>
identi al</w>
hol z</w>
ho b</w>
hi red</w>
her n</w>
hab its</w>
h .</w>
groß zü
gres s
gra des</w>
gewal tigen</w>
get au
gene tically</w>
gen ous</w>
gen er</w>
geläh mt</w>
geh st</w>
ge trieben</w>
g y</w>
g ments</w>
g licher</w>
fir st-
fi bers</w>
f ers</w>
explor ed</w>
esz enz</w>
erlau bte</w>
er em</w>
ein gebaut</w>
ec ology</w>
dr um</w>
dr innen</w>
domin ated</w>
dis ability</w>
di vor
di stances</w>
denk st</w>
den d</w>
cosm ic</w>
collap sed</w>
co tton</w>
clo sest</w>
ch ende</w>
cat ching</w>
c igar
bul b</w>
break fast</w>
bre cher</w>
bo ats</w>
bo ar
bi al</w>
beteili gen</w>
besser er</w>
ber ry</w>
belie ves</w>
be antwortet</w>
b ie
audi ences</w>
au to
assu mption</w>
as ien</w>
alco hol</w>
ad y</w>
achie vement</w>
ab sen
a im
Z wischen
Wolfra m</w>
Wis sens
Wel ches</w>
Wasser stoff</w>
Vor bild</w>
Verk auf</w>
Ver langen</w>
V äter</w>
Tor onto</w>
Ti bet</w>
Tal ent</w>
St ei
Spre chen</w>
Sl ums</w>
Sei fe</w>
Schä del</w>
Sch ad
Re fer
Re chner</w>
Rat te</w>
Qa eda</w>
Produ kten</w>
Pro p
Po cken</w>
Pitts burgh</w>
Phan tom
P ion
O oh</w>
Näch stes</w>
Ni ke</w>
Michelangel o</w>
Mach t
M ul
Lou is</w>
Kreisl auf</w>
Koh le
Kat zen</w>
K -
J ord
Interpre tation</w>
Inter viewer</w>
Indu strie
I ts</w>
Hir n</w>
Hal b
Größen ordnung</w>
Fru cht
Fas ern</w>
Erlau bnis</w>
Erkrank ung</w>
Erkenn tnisse</w>
Dru cker</w>
Di kt
Dankes chön</w>
D oc
Co ck
Co ast</w>
Ch emo
C anc
C RIS
C N
Bl asen</w>
Besit zer</w>
Ber at
Bee tho
Bab bage</w>
B ö
B enz
Am ster
Al phab
A mat
9 00</w>
7 6</w>
4 50</w>
195 0s</w>
19 45</w>
üh len</w>
ä le</w>
zu machen</w>
zieh e</w>
zentr alen</w>
zent ren</w>
wüs ste</w>
wo anders</w>
whe at</w>
wahrschein licher</w>
verb al</w>
ver raten</w>
ver ni
ver li
v ens</w>
us etts</w>
unter brochen</w>
unpreced ented</w>
u zin
tun nel</w>
trans mission</w>
top us</w>
th esen</w>
th al
tei ls</w>
tar ge
struc tural</w>
stie ß</w>
ste pped</w>
st ill
spre cher</w>
spann end</w>
sl ums</w>
sk i</w>
sin kt</w>
si ge</w>
si erte</w>
sen sation</w>
schwer en</w>
schwar zes</w>
schrei en</w>
samm elten</w>
s wal
ries iger</w>
reti rement</w>
respon ses</w>
resol ve</w>
refuge e</w>
re produce</w>
rain forest</w>
puzz les</w>
pro jec
previ ously</w>
pre vention</w>
pre cious</w>
po sted</w>
pl ätze</w>
percei ved</w>
pac ked</w>
p ill
p -
our ing</w>
ori um</w>
orchest ra</w>
opp ed</w>
op oli
on going</w>
omet rie</w>
ome tern</w>
om ing</w>
olog ically</w>
off ering</w>
off -
n i</w>
mach in
ma pping</w>
m ill</w>
lung s</w>
listen ed</w>
limit ations</w>
li tt</w>
lei tet</w>
lea p</w>
le i</w>
l abel</w>
kontin u
kombin iert</w>
klein sten</w>
kl are</w>
journ alists</w>
it age</w>
ir gend</w>
inter views</w>
i on-
horizon tal</w>
hor mone</w>
ho ok</w>
hi ding</w>
her bei
helic opter</w>
har dest</w>
hal fen</w>
hal f
grie ch
glie dern</w>
gest eckt</w>
geomet ry</w>
gent lich</w>
gefähr liche</w>
för mi
for schen</w>
fokussi eren</w>
fi es</w>
fer tig
f st</w>
exer cis
et -
est ers</w>
est ate</w>
ermu tigen</w>
erg än
em powered</w>
elek tro
elec tron</w>
ein ig</w>
ein ges
effek tiver</w>
econom ist</w>
e ters</w>
durch laufen</w>
drän gt</w>
do te</w>
distri ct</w>
dis ab
di gi
defin ing</w>
dar y</w>
d rom</w>
custom er</w>
cri tici
controversi al</w>
cont amin
connec tivity</w>
com men
co ca
cli ent</w>
challeng ed</w>
ch usetts</w>
c ers</w>
buil ds</w>
bre eding</w>
br /</w>
biolog ist</w>
bewusst sein</w>
beschrän kt</w>
beschleun igt</w>
berü hr
begri ff</w>
beein druckt</w>
be fand</w>
b ak
assi g
ari en</w>
argu ing</w>
appl ying</w>
al titude</w>
al tete</w>
Zen timeter</w>
Werk zeugen</w>
Wei ßen</w>
Vic tor
Vernun ft</w>
V aters</w>
Ushahi di</w>
Ur sprün
Tür en</w>
Tradi tionen</w>
Tesz ler</w>
Teles k
T we
Su per</w>
Stra f
St recke</w>
St am
Spr ung</w>
Sim on</w>
Schätz ung</w>
Schau spiel
Sch äd
S eri
Red wood</w>
Re zept</w>
Ran de</w>
R ose</w>
R ennen</w>
R enn
Princ eton</w>
Pan ik</w>
P ent
O ut</w>
O el</w>
Nähr stoffe</w>
Ni cht
Nep al</w>
Mo MA</w>
Mat t</w>
Massa chusetts</w>
Mar ken
Mar gar
Le ber</w>
Kor tex</w>
Kol lege</w>
Ko chen</w>
Ju ly</w>
J ay</w>
J ac
Israel i</w>
Interess ante</w>
Ingenie ur</w>
Hal tung</w>
H ear
Gu ar
Go liath</w>
Ges etzen</w>
G än
Frank lin</w>
Fil ter</w>
Fil me
Fan ta
F lo
F esti
Exc ept</w>
Erzäh lung</w>
Eliz abeth</w>
E mi
Dör fer</w>
Dou g</w>
D ä
D schi
Com ics</w>
C er
C ape</w>
Bu ck
Bes uch</w>
Ber n
Bel eu
Be zir
Bar ri
Au th
Anhän ger</w>
Al len</w>
A thei
A C
5 7</w>
4 0,000</w>
19 70</w>
ökonom ische</w>
zu verläs
zu letzt</w>
zip lin</w>
zi p</w>
z -
y l</w>
woh nern</w>
wichti ges</w>
whe els</w>
wer ken</w>
vo ting</w>
verwen deten</w>
val ley</w>
und -
unabhän gige</w>
um fasst</w>
u men</w>
tter y</w>
tt ä
tro ops</w>
tiv eness</w>
tig keits
ti zed</w>
th us</w>
ter rain</w>
teen age</w>
tatsäch liche</w>
t ts</w>
t ables</w>
sy nap
super market</w>
st un
so m</w>
skelet al</w>
six th</w>
si zed</w>
schen ken</w>
scen es</w>
scan ning</w>
sa g
rück wärts</w>
roll ed</w>
resear cher</w>
re y</w>
re gen</w>
re con
re cken</w>
re actions</w>
r ischen</w>
pur suit</w>
präz ise</w>
pro pose</w>
privi le
prepar ing</w>
po ckets</w>
phosphor us</w>
per to
oper ni
oper ative</w>
ogra mm</w>
no des</w>
neu esten</w>
ne ck</w>
navi gate</w>
natür licher</w>
motivi ert</w>
mit ät</w>
mit gebracht</w>
manipul ate</w>
m äh
lux ury</w>
li ste</w>
li fes
lehr t</w>
lea ther</w>
lea f</w>
la y
l ac
kri tische</w>
kri ti
klin ischen</w>
iz ieren</w>
ir rational</w>
initi ative</w>
ine a</w>
imp or
ill umin
househ old</w>
hor izon</w>
head lines</w>
he f
gras p</w>
gir l
gemein t</w>
gel ten</w>
geb nisse</w>
fä higen</w>
flie ß
fem ales</w>
fail ures</w>
f ears</w>
experim entieren</w>
exec u
ex pos
eur er</w>
erfolgrei che</w>
enz y
ent zün
ent schul
encoura ging</w>
en tic
emotion alen</w>
elektron ische</w>
el ess
el d</w>
ein nehmen</w>
ea k</w>
e uren</w>
dro ps</w>
des pair</w>
der maßen</w>
cul ar</w>
cri cket</w>
continu ous</w>
coca ine</w>
co in</w>
bure au
bra ve</w>
bom b
ber ich
ber a</w>
be auf
be aten</w>
auspro bieren</w>
at or
appro ved</w>
ann ual</w>
ama zed</w>
al and</w>
activ ate</w>
absur d</w>
absen ce</w>
abhän gt</w>
ab schließen</w>
Z ip
Wir bel
Wil son</w>
W I
Vor geh
Viet nam
V an</w>
Unter hal
Treib stoff</w>
Tre ppe</w>
T wit
Säuge tiere</w>
Sud denly</w>
Stre ben</w>
Sta ge</w>
St ück
Spiel s</w>
Span ien</w>
Sklaver ei</w>
Sie ben</w>
Sel ektion</w>
Schn ell
Schlagzei len</w>
Schla cht</w>
Sch izophren
Sch aut</w>
S wis
S he
S eil</w>
Ru h
Ren aissance</w>
R ach
R L</w>
Pro tot
Pre mier
Power Point</w>
Poli zisten</w>
Pil ot</w>
Phoen ix</w>
Pazi fik</w>
PT CH
Off ice</w>
Off en
Nor wegen</w>
Nic ole</w>
N on
N ich
Mä use</w>
Mor al
Medikam enten</w>
Me eting</w>
Lit er</w>
Liber ia</w>
Lat ein
Lad y</w>
Kul tur
Krankenh äuser</w>
Kon sum</w>
Kol onien</w>
Kno ten</w>
Ki bera</w>
Kateg orien</w>
K n
K aro
Journ alist</w>
Irgend wie</w>
Höh len</w>
Hei lung</w>
H ill</w>
Gerü st</w>
Ge wi
G at
G all
Frieden s
Fri day</w>
Form el</w>
F G</w>
Dro hnen</w>
D ür
D I
Car ne
Can a
CA PTCH
Bild schir
Betrie bs
B eing</w>
Arbeit sk
Ar my</w>
Antar ktis</w>
Angele genheit</w>
Alko hol</w>
Al an</w>
A gr
A K</w>
7 0ern</w>
7 ,
5 4</w>
4 -
24 -
2, 5</w>
1 80</w>
üh ungen</w>
ökonom ischen</w>
Äthiop ien</w>
zwan zig</w>
zur ei
zu recht
zu gehen</w>
z iger</w>
wun dern</w>
we dding</w>
war tete</w>
wander ing</w>
w ling</w>
w einen</w>
vis ion
versor gt</w>
verknü pft</w>
ver fahren</w>
ver boten</w>
tri eben
tra ce</w>
top -
toile ts</w>
tion -
tic ism</w>
ter min
tent eils</w>
t ner</w>
sü chtig</w>
surro unding</w>
stärk sten</w>
str ings</w>
story telling</w>
stopp ing</w>
st ick
sin k</w>
simpl er</w>
si vely</w>
si ble</w>
short -
sci ences</w>
sch uss</w>
sc ratch</w>
sa fer</w>
rob i</w>
ro tt
rest lichen</w>
rel ief</w>
rel and</w>
reflec tion</w>
re cher
radik al</w>
ra ge</w>
quanti ta
pro vo
pi zza</w>
p est</w>
on t
o un
newsp apers</w>
ner ves</w>
nega tiv</w>
motivi eren</w>
mo tors</w>
mit ted</w>
metap hor
mei ster
me er</w>
mat ure</w>
market place</w>
m ou
lo an</w>
le ment</w>
lan es</w>
lan det</w>
lab s</w>
krie gt</w>
kor ri
konstru iert</w>
kni fe</w>
klär en</w>
kin dness</w>
k ne
jen es</w>
ir ts</w>
intr insi
intelligen ten</w>
inevit ably</w>
in forma
ignor ed</w>
ho h
guaran tee</w>
größ eres</w>
great -
gradu ated</w>
gr unde</w>
glam our</w>
gg ers</w>
gew ohnt</w>
gest ure</w>
ge tation</w>
ge ord
ge fügt</w>
gan gs</w>
form at</w>
fla ch</w>
fel der</w>
fa ktoren</w>
extra ordinarily</w>
ewi g</w>
ep i
ent ran
enem ies</w>
ein führen</w>
ein bringen</w>
ec raft</w>
dum b</w>
du le</w>
dro pping</w>
don or</w>
disab led</w>
deh nt</w>
decre ase</w>
d kr
correc tly</w>
conveni ent</w>
conv ey</w>
constra ints</w>
concent rated</w>
con front</w>
char akter
campa ig
c ogni
bur st</w>
blin dness</w>
bli ck
best än
benö tigte</w>
bel eu
bedeut ende</w>
be treffen</w>
b aten</w>
b adly</w>
aufre gende</w>
au g
attac ked</w>
assi stance</w>
architek ton
anspru chs
ange boten</w>
an gewandt</w>
an gen</w>
amp en</w>
all as</w>
ali stic</w>
ali gen</w>
aff ecting</w>
ach es</w>
Ver öffent
Ver gewal
V ölker</w>
V eter
Trink wasser</w>
Te am
T our</w>
Studi erenden</w>
Str ö
Stor y
Sti ll</w>
Sta hl
Som alia</w>
Sk ep
Sei den
Schrift steller</w>
Sch lag</w>
S öh
S ure</w>
S ei</w>
Rau mes</w>
R äumen</w>
Pro ph
Plan ung</w>
Ph. D.</w>
Par ks</w>
Nai robi</w>
Na del</w>
N im
N ev
N est</w>
Mü he</w>
Mär kten</w>
Milli on
Merk male</w>
Me than</w>
Land schaften</w>
K ün
K ro
K as
Juli a</w>
Interessan tes</w>
Industri al</w>
I reland</w>
Her steller</w>
Hei l
Har mon
H ektar</w>
Gu atem
Go tt
Franc is</w>
Fo od</w>
Fan gen</w>
F ischer</w>
Er weiter
Einschrän kungen</w>
Ein zige</w>
Ein blick</w>
E duc
Durch bruch</w>
Dur ing</w>
Dri ttens</w>
Di chter</w>
Di am
D amp
Co ch
Carne gie</w>
Canc er</w>
C op
Budd h
Bran che</w>
Br au
Bom be</w>
Besonder s</w>
Bel ie
Bakter ium</w>
B ä
B auch</w>
B -
Aus land</w>
Aristo tel
Appl aus</w>
Any one</w>
Anrei z</w>
An liegen</w>
An dro
Alter s
A gn
A D
9 0ern</w>
7 .
3 0.000</w>
199 6</w>
1 25</w>
ö ßen</w>
äch ter</w>
Är ger</w>
zwei fel
zus p
zu stimmen</w>
zu hause</w>
zu grunde</w>
woh nt</w>
wo und</w>
wit n
wirtschaft lich</w>
wei gh</w>
wei ger
war ri
w ette</w>
w ellen</w>
vor schlagen</w>
vers etzt</w>
verdopp eln</w>
ver treten</w>
um her</w>
u en</w>
tri gger</w>
to ten</w>
terri fying</w>
ter es</w>
teles cop
techni cally</w>
t es
sur es</w>
su its</w>
sta ys</w>
spra y</w>
sp ü
sp ati
sich ere</w>
si us</w>
si gen</w>
si eben
si der</w>
sh ment</w>
sel ected</w>
schul en</w>
rop e</w>
rin a</w>
reg ard</w>
reci pe</w>
re actor</w>
radi o
ra il
qu et
prosper ity</w>
pro state</w>
poli tischer</w>
po is
po campus</w>
pi pe</w>
pi ge
para dox</w>
par ach
organis ationen</w>
op a
offen bar</w>
off ers</w>
o cortex</w>
männ lichen</w>
mäch tig
mä use</w>
monit oring</w>
mit glieder</w>
me als</w>
mar sch
mar ry</w>
loc ations</w>
lieb sten</w>
li fel
lei ter</w>
lei chter
lar ge-
l ager</w>
kollek tiven</w>
ju ven
ju sti
je gliche</w>
it y-
ish a</w>
interpre tieren</w>
integri ert</w>
infec tions</w>
in king</w>
imm ig
höch st</w>
ho p</w>
histor ically</w>
hin gegen</w>
heal ing</w>
half way</w>
h ing
gu ilty</w>
go -
gli mp
gere ch
ge plant</w>
führ e</w>
ft mals</w>
frequ ently</w>
fossi len</w>
for e
fluor escent</w>
finanzi elle</w>
fall s
f ungen</w>
f in</w>
[...]
